Ġtier
Ġ21
Ġlaunched
Ġapprove
Ġbiting
Ġreports
Customer
ise
Ġbother
Ġelectricity
ivating
iments
Ġtr
Ġthrone
Ġspilling
Ġmuster
Ġbut
Ġsounded
ĠYES
asp
Ġpurchases
Ġsharper
Ġship
Ġritual
Ġoutrageous
Ġres
ĠNeed
Ġelegant
onto
ĠMonster
Ġfinely
Ġlitter
Ġstacks
Ġroam
Ġtype
Ġreplacing
ĠNapoleon
Ġbananas
ĠClick
Ġflour
Ġrealization
ĠPract
Ġrookie
Ġequipped
Ġthee
Ġstored
may
response
Ġmarket
Ġtempt
Ġcryptic
ĠProper
Ġrocks
Who
ĠSecond
Ġfolding
Ġcompact
Ġnames
Ġemerge
Ġtourist
Next
ĠDO
RE
Ġknowing
less
flash
Ġsaf
Ġunderneath
OSH
ĠThanks
Ġsamurai
Ġneighborhood
Ġclaws
Art
Ġcatchy
all
Ġtasting
Ġconcerts
Ġendorsed
prison
Ġhooks
ours
alt
ĠLo
It
ĠMexico
ore
Ġcor
Ġgear
Another
Ġwholes
Ġtraditions
ĠMus
Ġtem
speed
Ġtransformed
ĠLovely
Ġrelativity
Ġmemoir
ĠOtherwise
ĠHas
Ġblo
ĠPret
Ġgreens
Ġhygiene
Ġs
Ġcapital
Ġdiverse
DER
ity
Ġcostume
Ġmeantime
iddling
ĠHey
Ġcozy
Ġdue
57
enn
Children
Ġstability
Ġshown
Ġenemy
catching
ĠTaking
Ġpartake
Ġcapacity
Ġanalysis
REAM
Ġsteep
Ġharness
Ġult
Ġbetter
ishing
Ġactress
Ġloses
Ġleveling
Ġso
Ġcausing
Ġvalley
Ġsports
Ġrebuild
Ġglare
Ġrev
Ġda
Ġputting
ĠMost
family
Ġcoordinated
Ġkeen
uation
Ġkind
Ġlimit
Ġcompeting
Ġpedestrian
sold
Ġcaution
Ġoffensive
Ġoften
Ġshalt
ĠBeach
Ġruled
ator
Ġinserted
Ġluggage
Ġtransmissions
ĠAbandon
ĠKnow
see
Ġspray
ĠTours
Ġriot
Ġevents
ĠGuess
Ġwire
Ġsul
Ġterritory
Ġpeeled
Ġconcepts
Ġimposing
Ġtitanium
ga
ill
izing
Ġroots
Ġthree
line
Ġgenerational
ĠVietnamese
ĠTHEY
orter
ĠCorn
retion
ĠAG
ethe
Ġsalmon
ĠInstead
Ġhaste
km
Ġappetite
Ġabsence
Ġexcel
Ġlick
Ġagrees
Ġdonation
Ġregister
mine
boxes
Ġmoment
Ġserved
Ġstunned
Ġfiction
ail
romptu
Ġpies
Ġroyal
ention
Ġaffirm
Ġgenres
Ġfootwear
Ġpals
Ġneon
Ġbe
Ġgenetic
Ġlengths
ĠRain
Ġreaches
Ġbuddy
Ġtrends
Ġintentional
ĠRequest
ĠHop
Ġcracking
who
Ġ46
ĠHall
ĠJo
Ġslug
Ġyear
Ġpolished
Ġcost
Ġenvy
onds
bec
Ġdistinguishing
$
Ġperformance
court
Ġshake
Ġcompares
ingers
Ġamazing
ĠK
ĠHH
ĠPri
Ġunhealthy
Ġtransfer
ĠEnt
ĠFrench
inch
Ġfriend
Ġsettles
loaded
do
Ġtale
aired
itled
Ġcontrast
button
Ġbreed
Ġdropped
Ġslee
Ġsettling
swe
uck
ĠPER
ĠGuardian
URN
Ġcanned
Under
ĠAustralia
Ġshelling
Ġinnocence
vant
Ġrising
ĠBo
ĠWr
Ġmanaging
also
clock
Ġconstant
Knowing
ahoo
Ġhalf
Ġcoast
Ġmatured
Ġloosen
ĠCitizen
ĠStuff
ĠTakes
Ġpreparing
Ġentry
Ġnowhere
Ġnearest
Ġbefriend
Ġpig
Ġfestivals
Ġ34
ĠIslands
clean
Ġsunshine
Ġknows
Ġoffend
pretty
ISE
ĠWorm
ĠHat
ĠHum
Ġirresist
Ġchildish
Ġstrength
Ġunt
ĠBE
Ġelse
Ġcal
Ġmastered
ĠCavern
stick
Ġmushrooms
Ġdensity
Ġvine
ĠBrooke
aught
Ġgarment
inters
Ġcoordination
Ġprepares
Ġbroth
ry
Ġcheers
mat
Ġsomehow
Ġlifting
ization
Ġnecessity
Ġjourneys
Ġafternoon
Ġpreliminary
inea
ump
Ġtrio
Ġquiz
Ġflies
Use
Ġbeh
Ġabdomen
Ġnaming
Ġfro
Ġpolite
shop
ĠOfficer
ĠDangerous
irds
Ġtheories
ĠYes
Ġprefer
OSS
Ġsage
ages
Ġdecoration
Ġaroma
Ġpaced
Ġexpects
...
Ġtrend
ĠClassic
ĠBronze
Ġcomet
Ġwhispers
rying
Ġtopic
ĠHollywood
unks
Ġwalk
Ġchart
bird
Ġsteam
ĠBALL
Ġtaste
Ġwrapping
Ġexhausting
Ġproperties
Ġtended
Ġcurrency
gre
Ġhot
Ġboutique
fashioned
ĠPack
LC
Ġart
Ġstealing
Ġox
Ġworldwide
Ġmother
Ġblinked
aff
Ġdepart
Ġsudden
Ġsubject
Ġadding
Ġdesigns
Ġinvolves
Ġpim
azed
Ġspo
Ġpencil
ĠHeads
Ġresolved
Ġsuited
Ġquality
Ġpotato
ĠHopefully
Ġsetup
bread
Ġsuggests
Ġproduct
Ġerrone
Ġbiography
05
Ġcompliment
Ġbillion
Ġpunches
Ġsummons
beaut
Ġaluminum
Ġbel
EST
Ro
Ġfalse
ges
ARP
Ġbundled
Ġidol
ĠMoving
ĠPrepare
Ġcanceled
ĠCelebr
Ġsmallest
ĠFriend
Ġgalaxy
Ġferry
Ġschool
hour
Ġcontext
Ġminerals
ĠTWO
ĠIncluded
Ġtimeless
Ġcurls
jin
angle
Ġsav
Ġreflected
ĠLux
aste
Ġflee
me
ĠGrab
ĠMeeting
Ġmillion
Ġvariety
SK
Ġdiscard
Ġpitch
Ġtoss
Ġbean
ĠTune
ĠPC
Ġcaffeine
Better
Ġnavigating
Ġthousand
Ġring
Ġcare
lier
Ġludicrous
Ġgenerate
Ġdistinguished
ĠShopping
Ġcalories
ĠOut
Ġwarned
ĠCere
ĠFairy
Ġroses
pling
Ġcursed
Ġsuperhero
te
Ġblame
Ġfe
Ġpigeon
Ġglitter
ĠSpl
Set
Ġpayments
Ġtriumph
Ġtread
Ġgarden
Ġsniff
Ġjuvenile
Ġtroubling
Ġexplosion
Ġdisclosure
Ġlaughter
Ġbelievable
Ġbeaches
Ġmustache
Ġexists
ĠLIFE
Ġcontributing
Fish
Ġfret
Ġfull
Ġsuitable
Ġunatt
Ġcomb
Ġboiled
ĠClosed
oya
Ġforum
P
Ġdear
dis
Ġeach
ĠPotato
Ġrated
ette
Ġthirsty
ĠHur
ĠCamera
ning
Ġfamiliar
Ġmarketing
Ġmixes
Ġuniverse
ĠPost
aja
Ġabdom
Ġuntil
em
never
Ġdrown
ĠOcc
Ġshipping
leaf
Ġacts
Ġshape
Ġdemonstrate
Ġsearch
ĠNobel
Ġsings
Ġdeveloped
Ġample
aya
ĠIdent
Ġyawn
Ġtrying
Having
ound
Ġdeparture
Ġear
Ġreflecting
ramids
Ġstreet
Ġchairs
Ġwander
ĠEquip
Ġclassic
ĠRB
Ġdefend
Ġjoking
acting
Ġenthusiasm
Ġlifestyles
ĠEquipment
Ġnets
ĠGranted
Ġalley
ĠInteresting
Ġfountain
Ġbelong
Ġboss
Ġfounded
ĠSome
ĠHUGE
Ġhairst
Ġforgiveness
crazy
ĠLO
Leg
ĠBeyond
Ġbeginners
ĠLocal
Ġmiserable
Ġaward
Ġdaylight
Ġrods
Ġlab
Ġflair
ĠConcent
ĠWithin
ads
Ġtrains
Pl
ĠBaby
Ġinf
Ġthem
Ġshocked
Ġpint
Ġplate
Ġseverely
fer
Ġbakery
Ġknack
Ġcores
Ġcalculation
weet
multi
Ġhe
Ġsanitation
ative
ĠSoon
Ġdome
Ġsquare
Ġspecial
Ġsearching
Ġgull
MM
Ġobserving
ĠEy
Ġasking
CC
ĠDefense
Ġstranded
ĠBulletin
ĠWave
Ġcough
Ġsays
othes
Ġcareer
itter
Ġbeef
ĠBrilliant
Ġchair
Ġtaken
Ġenthusiast
YING
ĠSword
ĠMel
Ġresting
cone
Ġtorment
Ġlanguages
priced
Ġnightmare
Ġruined
Ġhide
Ġassist
ĠWednesday
Ġmusician
Ġwhere
called
Ġguessing
Ġendless
fan
Ġdrain
Ġforgot
Ġaware
ze
Ġmutually
psy
ĠDoes
58
Ġdistrict
ĠStart
Ġcolorful
build
izes
ĠBreaking
Ġtricked
Ġhordes
Ġconstantly
Ġbounces
inside
Ġwelcoming
Ġgrab
ĠSe
VER
Ġplastic
orno
Ġcounterfeit
girl
Ġreset
Ġcompetition
icip
Ġhire
Ġbait
Ġstressing
MP
Ġquote
Ġenchanted
Ġtag
Ġsounds
Ġmeasures
iking
Ġalike
Ġmeter
ĠGarr
Ġslicing
ĠSimply
Ġwrote
Ġsusp
names
Ġadvise
ĠQ
ĠTR
Ġgrat
ified
ELL
Ġpostp
Ġswim
path
Ġparticipate
ĠMen
Ġlounge
ĠReese
Ġemperor
Ġupgrade
ĠBott
Ġpredators
ulating
Ġtons
Ġmemory
Ġintroduction
Ġhandwritten
ger
Ġmell
Ġdinosaur
ĠDue
ana
Ġjust
Ġconveniently
in
IX
Ġpower
ĠDays
Ġformally
Ġrose
Head
Ġupset
Ġproposal
iless
ĠNot
Ġanyone
Ġsteady
Ġshar
ĠShe
Ġmessed
Ac
flation
icing
ĠNo
ĠGIF
Ġliberty
ares
ĠFurthermore
Ġtracked
eddy
ĠAs
Ġremain
ĠLast
Ġvirt
fect
Ġbarn
eers
Ġexceptional
achi
!
Ġunlocked
ived
eree
ĠDirection
Seeing
fulness
ina
Ġprograms
ĠHalloween
ples
ĠElder
ĠWet
Ġabsorb
Ġbodies
Ġhitch
Ġcondition
Ġingested
ience
ĠScience
Ġmatter
imp
Ġbecome
Ġwicked
Ġfumes
ĠAccept
Ġthr
}
Ġthey
ĠHow
Ġclub
Ġsnail
Ġseasonal
ĠStrike
Ġturtle
ĠPAR
Ġcons
Ġbackward
ĠStrange
CEPT
Ġdioxide
Ġcowboy
Ġunsuspecting
Ġmaybe
Ġsupplied
closed
Ġdown
ven
Ġstolen
cles
Ġwarm
ĠDARK
kay
ĠCD
Ġenjoying
Ġpamph
Ġwhipped
rawn
Ġmayor
Ġdispose
Ġturf
oc
Ġgrabbed
ĠOops
Ġrooftop
ators
AY
zel
ĠLakes
Ġarchaeologists
take
ĠGallery
Ġfantasies
Ġshy
isse
maid
Ġbuses
floor
Ġpoet
Ġsettings
ĠTanks
with
pers
Ġsensibilities
ĠMAD
Ġobligation
Ġcrashed
Ġfruits
Ġgoes
Ġaddiction
Ġcould
iable
Ġshouted
Ġimmersion
Ġsw
ĠEye
ĠViolet
Ġdeliver
OW
Ġfrightened
Ġkios
Ġaround
Ġheating
ĠBring
Ġav
Ġagency
birth
Ġslack
Ġupbeat
Ġtoug
Ġsomeone
Ġwig
ONG
Ġresources
Ġwaving
Ġpand
Ġli
Hel
Ġreplicated
ĠStick
ĠGreece
ĠBee
Ġlanding
born
ON
ĠContinue
Ġbaked
Ġaqu
ov
Ġbrisk
Ġtitled
lection
Ġfully
Ġcuts
Ġimage
ĠWicked
Ġhousing
EG
Ġrode
Ġrunners
Ġtopped
Ġsunrise
uh
ĠUlt
Ġthrew
Ġgalleries
cele
Ġdye
Ġmarvelous
connect
Ġcompl
ĠJunction
Ġanswer
Ġclicked
ĠMain
Sweet
Ġchanged
iz
om
ĠHidden
Ġsne
Ġencouragement
Ġbicy
Ġdiamond
Ġcran
icultural
ĠIS
ĠChe
ĠGrand
Ġfocus
Ġexploring
Ġoxygen
ĠScare
umping
ville
Buy
mil
Ġpay
Ġbegs
hirt
after
Ġshrunk
Ġmentor
ĠFinance
ĠFlat
Ġblinded
Ġradio
Ġlaughs
Ġvisual
ĠMajor
Ġgrammar
activate
Ġreleasing
ĠAccording
ologne
Ġtame
ĠFunctional
Ġsurvived
Ġ60
ously
Ġrepresented
gee
Ġhun
essing
Ġprank
ĠEE
Ġmigraine
ĠBoo
ĠTick
Ġresponds
Ġdumb
Ġspontaneous
fashion
Ġanalog
Ġhealing
Ġbrow
aun
Ġfading
Ġlifelong
eye
Ġmost
Ġtaller
Wow
Ġliv
Ġdetails
Ġaspects
Ġmultiplayer
Ġhose
party
Ġmeditation
Ġsn
Ġauthorized
Ġau
osed
DM
rr
Ġvigorous
ĠCry
Ġ800
Ġsubstances
Ġnarrowly
ĠBottom
Ġgravy
Ġacquire
Ġimmunity
Ġfilm
Ġgo
Ġexplanation
rus
Cl
Ġ32
Ġtown
Ġrehe
Ġrestrict
itch
Ġscare
Ġcherished
Ġinsult
Ġknew
Ġswift
ĠAr
Ġstatus
ctic
AV
Ġcages
Ġcommunicating
Ġlook
idence
Ġtwitter
Ġantiqu
Ġtraps
ĠSW
ĠGuide
Ġmay
ĠOFF
Ġtoilets
ĠAunt
ar
Ġmid
Ġcooks
Ġlistening
Ġdusk
Ġenjoyed
ĠLIST
ĠTE
Ġathletes
ĠCode
Ġreserved
Ġmol
Ġvinegar
Ġselect
Be
Ġjelly
Ġnowadays
Ġslammed
shot
rew
Ġeighth
Ġmaterials
etr
EA
Ġdiver
ĠSomebody
Ġfunky
Ġabducted
Ġadventures
Ġwind
ockets
Ġrounding
Ġoversized
ĠCrossing
wr
Ġmeet
Ġmatchups
inx
Ġcousins
ĠCoconut
ST
ĠYep
gery
Ġlasting
Ġroasted
lings
Ġflav
istic
ables
Ġdistinguish
hero
ĠLIKE
Ġgrass
oom
Ġgrown
Ġseed
ĠFans
Prom
E
Ġsl
Ġourselves
Ġdug
Ġhomeowner
ORS
ĠTHEM
Ġswap
Ġlaundry
Ġanger
Ġeither
Ġroot
ĠBO
Ġpins
Ġexplode
itizen
Ġfield
Ġmuseums
SU
ois
Ġdirection
important
ĠCoin
ever
ases
Ġpresum
Ġlush
ĠReward
AA
Ġpreserves
Ġspacing
Ġgreeted
e
fold
duct
Ġcl
ĠNope
Ġcooler
ham
orn
ĠEval
ĠHo
Ġhimself
Ġdel
Ġportions
Ġmenu
ĠWan
Ġmuscles
ĠPoor
Ġexpectations
Ġrelieve
spl
Ġangle
Ġunexpected
ĠWhatever
Ġholiday
ĠIsle
Ġbloated
Ġbad
Ġroommate
Ġlion
Ġpans
ĠBreak
Ġvague
Ġthrown
seller
Ġinvented
Ġvocabulary
Ġenters
Ġpredatory
Ġpredict
ective
Ġany
Ġadmitted
ĠYounger
Ġexpl
Ġrevol
ĠDel
Ġentails
ka
Ġ38
Le
anted
Ġsurfaces
og
Ġspectacular
ĠFunk
ĠDiego
Ġsubstantial
Ġtuning
Ġrugged
ĠExcellent
Ġmembership
Ġviruses
TER
ĠDeposit
Ġhammer
Ġsets
ACE
Ġsure
Ġinsist
Ġwears
Ġtape
Ġfather
Ġpumping
obal
&
ĠHi
ĠCous
Ġpoem
per
Ġagreeing
minded
Ġdoors
Ġdissect
Ġblown
Ġkid
Ġstill
Ġsignal
essee
You
ĠCome
Ġresponsibility
auder
Ġdelicious
secret
UCK
Ġharm
Ġamongst
While
Ġfiscal
arg
lam
Ġwhisk
Ġknown
Ġcards
Ġeclectic
Ġlength
Ġequip
Ġprogram
flies
Ġtear
itted
ĠPart
Ġkale
its
Ġrein
Ġol
quet
ĠASAP
astically
Ġidi
Ġsurviv
Ġout
Ġmarry
Ġmiraculous
arters
Ġincreases
cephal
ifle
Ġdusty
Ġsugar
ives
Ġcatch
ĠLower
Ġcov
Ġkidnap
ĠDan
Ġladies
orship
Ġundis
Ġevenly
ĠNat
Ġwon
ĠSlow
Ġamusing
Ġfrankly
Ġ22
ĠWonder
Ġdata
ummer
Ġknow
Ġscreams
Ġphysical
Ġnewly
Ġnorm
Ġappraisal
idents
Ġadditions
car
ĠTale
All
ome
Ġstruck
Ġrequire
Ġepisode
AZ
Ġspacious
Ġdeclare
Ġrelax
Ġadorable
estival
Ġuncontroll
Ġwho
oner
ĠOy
Ġcracked
iko
Ġsurface
ĠPeace
erning
Ġadventure
ĠDigest
Ġthinkers
Ġpe
iton
Ġgovernment
Red
Ġheroic
Ġspike
ĠTree
ĠOH
Ġcontact
isp
Ġproven
Ġthreatened
hew
appa
ĠRai
Ġvibr
ĠChanging
ĠSUR
Ġverbal
ĠArcade
Ġranging
Ġdecision
Ġlisting
Ġoffspring
Spring
Ġreact
Ġexpense
eyed
Ġrepairs
Ġinvitation
Ġdynamic
Ġroy
Ġviews
ĠToy
ĠNess
Ġpointer
Ġrepresentation
Ġ180
Ġdownside
ruct
Ġurge
Ġproves
ĠGiven
Ġflick
RAM
Ġinform
Ġprolong
Ġnewborn
Ġaccounted
Ġwh
Ġbridges
ĠWed
Ġvendor
ressed
Ġtid
Ġ\
Sund
Ġmanage
Ġmodeling
Ġyards
Ġjer
Ġstandby
Ġleaps
Ġmoisture
Ġwand
Ġspecialist
Ġpassionate
Ġplanets
Ġattack
Ġspot
Ġcurry
Ġcompleting
tin
ĠManager
ĠNonetheless
Ġshot
picking
Ġcomparison
Ġoct
ĠIns
Ġeasiest
own
Ġfeeling
Ġgenuinely
ĠSA
mod
Ġhaunted
Ġoutside
Ġstunning
ĠCir
Ġrequesting
ĠServe
Ġrapt
Ġdust
Ġbees
itis
Ġbury
air
Ġ1
Ġassure
Ġcone
wrap
Ġbreakout
Ġswings
Ġglance
Ġnoon
Ġheadache
Ġado
Ġwatering
Ġpicks
Ġstubborn
ĠNights
ĠCong
Ġqueen
Ġgraves
Ġbreath
edition
apy
Ġunique
Ġhugs
Ġfewer
Ġretired
Ġreaching
Ign
ĠSafe
Ġtriumphant
ĠYourself
Ġdemanded
jas
ĠJO
Ġregulations
Ġimmense
Ġhaul
leading
elly
onsense
Ġcaptures
chal
Ġingest
Ġscream
orses
Ġharvest
ĠBR
suits
Ġgoggles
mart
ĠThese
leon
Ġcustom
ite
aa
ĠGob
ĠPlaying
ĠSuddenly
Ġgroup
Ġcontain
Ġinstant
Ġceleb
Ġod
Ġbacked
Ġpursuit
Ġpoke
Ġrectangular
Ġresolve
ĠPRES
orable
ĠWatch
House
Ġsculptures
Ġhate
Ġbrand
Ġbalances
Ġcontemplation
Ġmill
Ġwood
ĠModer
Ġsoothing
Ġshaped
ew
'll
Ġfires
ju
Ġregulate
Ġnostalgic
Ġgraduation
Ġhouses
GER
Ġtofu
Ġpilot
ĠWhe
Ġperformer
Ġlavish
Ġsize
hl
ĠCOR
Ġfab
purpose
Ġberries
won
ĠDem
Ġimperson
ĠTrade
uddy
Ġflattering
Ġstale
ĠLab
Ġreasons
Ġlest
ĠAR
omen
ique
Ġpizz
Ġhey
Ġpainting
Ġcritical
ĠPublic
pathic
anda
ĠAi
Ġpretty
Ġcoveted
Ġexercises
Ġattach
Ġportrait
Ġlad
roid
ĠCause
Ġsplash
Ġdice
Ġmosquito
Ġfru
T
ĠMusic
ĠCRA
Ġbuying
ĠWarrior
Ġtam
unit
Ġages
Your
Ġtasted
Ġguns
Ġstreaming
Ġshorter
kers
obby
ised
ĠSah
rill
Ġbatt
Ġgr
ĠSecrets
sleep
ĠRare
Ġbattlefield
Ġtheir
ologies
Ġsqueezing
Oh
Ġpublicity
Ġmate
ĠAm
Ġobserv
mask
Ġprincess
Br
Ġscares
Ġsurprise
Ġmotorcycle
Ġlif
Ġadvantage
ĠBul
Ġhunters
OGR
Dad
Ġsandwiches
Ġenforce
Ġtroublesome
tight
Ġsluggish
Ġcall
Ġsuddenly
Ġwireless
winner
Ġpers
Ġsweetness
Ġhelmets
Ġperiodically
Ġhears
atical
ĠGive
ĠOne
ĠLOL
ĠVisit
Ġequate
Ġwheel
Ġfever
ĠUmb
ĠSAY
Ġpaths
ĠMUCH
abled
Ġimpending
ĠAnimal
Ġflight
ĠSTAT
Ġdiscipline
Ġmany
Ġcorn
cop
Ġty
taking
@
Ġbrutal
ĠGrac
ĠI
Ġmerchandise
ĠDeep
Ġnickname
lex
Ġflew
Ġcosts
ation
Ġexploration
Ġlighter
ĠStone
Ġsupers
fortable
Ġheading
Ġdramatically
iva
ĠFirst
Ġscrew
Ġspiritual
Ġoccasion
ĠProm
though
WW
Ġchewing
Ġhue
Ġhavoc
Ġstaged
Ġtechnique
Ġcher
Ġquestioning
Ġimpressed
ĠImagine
Ġmach
ĠAward
Ġrequires
ĠInsect
Ġhugely
Ġinsists
Ġgranting
Ġtheory
al
Ġglad
arity
cup
ĠPassing
Er
Ġtorpedo
Ġmanageable
Ġfactor
need
Ġpoll
Ġdevoid
ĠBean
AND
ĠLabor
u
Ġcub
Ġbred
ĠApple
bo
Ġbeliefs
Ġnightly
Ġsorely
ĠStub
Ġdominate
Ġconco
ony
Ġcommission
tered
Ġofficials
ĠLayer
elt
buy
Ġflows
Ġonions
Ġbreaking
color
IC
Ġshadows
Ġpeas
ĠCostume
plan
ashi
ĠJohn
Ex
Ġsupplements
Ġpredator
Ġloan
od
Ġcertainly
ocated
Ġrefresh
Ġnicely
iky
Ġdetail
Ġreminder
Ġkiller
Ġreun
Ġspl
Ġshampoo
Ġconstellation
ĠPull
ĠAf
Ġpointless
tale
noon
ĠRussia
Ġproperly
awa
Ġsensitive
ĠEconomics
Ġstudying
omin
ĠHERE
Ġstoring
Ġaccounting
ET
ĠEN
Ġspiked
ork
Ġ12
Ġlink
Ġpath
Ġboy
ĠWH
Ġneglect
Ġdull
Ġl
t
Ġal
Ġc
iques
ados
Ant
Ġdiscretion
Ġspiral
key
Ġrespected
ĠGOOD
Ġstirring
Ġskies
Ġcompletion
Ġingredient
Ġdrank
imsy
Ġrandom
Ġoriginal
NEW
Ġfailures
Ġraft
Appearances
Ġwisdom
Ġlaughed
Ġsweep
ĠWR
upp
ĠMs
Ġpleasing
Ġobjects
Ġfunctional
Ġlearns
Ġthough
Ġwee
largest
from
Ġscenario
Ġdisgust
Ġlit
Ġbeyond
ea
oring
ĠWelcome
Ġro
Ġdanced
Ġinevitably
Ġprotect
ĠBl
Ġblocking
Ġparked
Ġarranging
Ġset
Ġneedle
Wait
Ġdiscounts
Ġchew
Ġdownhill
ĠBorn
Ġsafely
Ġsplit
Ġrh
Ġrs
iper
FF
Ġappropriate
Ġoverlooked
rowing
ĠSpecifically
Ġflock
Ġrotten
Ġpurchase
Ġdogs
ites
Ġflame
and
drop
ĠJimmy
Ġmasses
iated
rets
Ġapr
ores
ĠEn
ĠTom
Ġeagerly
oming
Ġtoughest
yeah
attered
ĠGir
pos
Ġfo
boards
Crime
eed
ĠTOTAL
Ġbaseless
ĠTherefore
i
ĠHO
Ġpuff
ĠData
Sc
Ġbold
ek
HE
Ġclich
ĠSisters
Ġbas
Cause
Ġpricey
ĠJurassic
ĠKan
Ġteasing
ĠOutside
ored
Ġitem
rot
Ġch
Ġclues
Ġirritating
ĠSingle
Ġtechnically
Ġanticipated
Ġinvest
Ġunc
cling
Ġabsorbed
Ġdoubted
Ġeclipse
Ġutterly
ĠRect
Ġflowers
ifter
ĠJoan
ĠTut
Ġcreates
Ġhappens
Ġblends
Ġliked
Ġdeliveries
Ġalphabet
Ġagile
Ġshop
Ġmad
Ġsang
uffy
Ġsurf
Ġhy
Ġpredictable
ĠPl
ology
ĠListen
ĠWhat
Ġindispensable
TF
orp
Ġduring
ats
Ġspinach
Ġmyths
Ġbrig
Ġpirates
two
ĠCEO
Ġnotions
Ġcollections
gger
Ġspins
ĠLif
Ġcircumstance
Ġscattered
ĠAnd
ĠCruel
Ġgenes
Ġimpatient
Ġwarrant
Ġdiscover
Ġhires
YS
talk
arah
Ġswoop
Ġarrested
ĠTheme
ĠGoose
Ġrusty
ĠStanding
Between
ĠREAD
Ġlap
Ġmessy
right
Ġang
Ġunst
Ġforehead
Ġintend
ĠMum
Ġdro
Ġshelter
Ġelephant
Ġaired
ĠSens
Ġstared
Ġheights
outheast
Ġtap
Ġtherapy
Ġfemale
Ġslower
Ġretirement
Ġeating
Ġsophisticated
ANK
Ġfruit
Ġassistance
Ġdrum
``
Ġbot
outs
sight
Ġunofficial
)
Ġcut
ucks
Ġswinging
Ġcel
ĠThrow
Ġscope
seeing
ĠHands
Ġspokesperson
Ġunavailable
Ġcompose
sun
ĠPear
chair
Ġwills
Ġtightly
Fran
ĠNeither
Ġpunk
Ġserious
OST
Ġlivelihood
ĠAdding
rss
ĠAL
Ġestate
Ġnoise
gres
Ġinjust
nis
Ġexisting
Ġscatter
ORE
Ġundefeated
Ġinterested
Ġcreativity
Ġtrivia
Ġstrictly
p
Ġhealthy
pred
gling
ĠSco
Ġislands
Ġswipe
station
Ġheavy
Ġknowledge
Ġambassador
Ġevapor
Ġreceipt
Ġcamoufl
ĠCave
Ġfall
Ġcause
Ġburns
ĠThis
Ġlies
Ġdigs
Ġclasses
Ġcoating
Ġthriller
ĠDread
Ġleast
Ġexpertise
thin
ĠMor
Ġabdominal
ĠAbsolutely
Ġcrash
Ġ400
Ġwalls
aim
Ġconstruction
Ġcan
Ġtug
Ġfiercely
Ġweave
room
Ġloans
ĠDisplay
Ġincluded
Ġdisgu
fight
Ġdownward
Ġblink
ĠWonderful
Ocean
Ġemit
Ġauthority
Ġbun
Ġparadox
Ġstream
Ġconstitution
ned
Ġwisely
Ġdiffer
Ġsandwich
Ġsmarter
ĠMush
Ġconsists
Ġbullet
Ġfurniture
Ġrepresents
Ġwaits
Ġtagging
ult
Ġsnatch
Ġlim
Ġjump
Ġbulk
Ġencounters
Ġtax
Ġdigestive
Ġsitting
Ġhacks
resso
land
ĠUnity
Ġsomeday
ĠPh
Ġlightly
field
Ġdietary
ode
Ġvenom
Ġsuccess
ĠIF
Ġhides
ial
Ġmov
Ġsofa
iration
Ġoverlap
Ġtext
ĠPlease
Ġmuff
ĠOp
Ġdenied
Ġdividing
ĠLow
Ġtraffic
Ġforce
itating
Ġgel
ures
Ġarrivals
Ġwild
Ġseat
Ġfree
Ġnerv
Ġarrangements
mania
ĠHav
Ġfossil
Ġvast
Ġtort
Ġstudent
ĠPoison
WAY
ĠEndurance
ĠAv
hog
Ġbirth
Ġended
Ġsurvey
ĠBetween
Ġcliffs
Ġrabbit
Ġparalysis
Ġviewing
Ġguides
Three
Ġpicture
Ġdeducted
ĠVoy
ĠChuck
ĠDouble
Ġbring
Ġskinny
Ġcosmetics
ĠIsland
Ġoverly
Ġjoke
Ġwindow
Ġprizes
Ġskull
Ġfulfilled
Ġcondensed
Ġcreature
end
Ġpeg
ETH
Ġunited
Ġcurator
Ġbars
Ġmore
Ġdevastation
Ġthreat
Ġrendered
Ġ9
Ġunfortunate
ĠPu
ags
issy
hunt
Ġmagical
Ġdownstairs
Ġdisguised
Ġtapped
Ġturkey
Ġlease
ancies
Ġwave
Ġbrilliant
Ġdocks
ĠFIRST
ĠSaga
Ġlumin
Ġincub
ĠControls
Ġdiscussions
ĠChecking
IR
red
Ġspectacle
Ġ200
bon
ĠMOR
ĠPopular
Ġstyling
Ġgraphic
ĠWa
Ġespecially
Ġnit
ĠBuild
Ġpride
ĠNe
ĠGoes
Ġbarking
Ġlure
Ġpartners
extra
Ġmothers
Ġrefund
Ġconcise
Ġfa
Ġcocoa
Ġvaries
Ġcheap
Ġoverwhelmed
ĠCherry
ĠLI
Ġpermissible
Ġwww
Oak
Ġindec
Ġstresses
Ġimpecc
Ġideals
Ġdatabase
ĠBig
any
Ġwarmth
Ġtact
Ġtutor
Ġprecise
Ġrodents
find
fol
piring
Ġnearby
Ġinterrupted
rest
ĠExhibit
say
istas
Ġsofter
ĠCatch
ĠDragon
ĠGuard
Ġprotective
Ġrecommendation
walking
haw
Ġchef
keys
Ġsurprising
ĠKinder
ĠDownload
Ġimpact
Ġease
Ġbothering
Ġsatisfy
ĠRebel
Ġnothing
Ġfinals
goal
Ġbite
Ġpsych
ĠBees
Ġgenerosity
Ġcomedian
Ġcakes
Ġgiving
Ġ2
Ġstub
Ġintensely
Ġstumbled
ĠRU
ak
Ġowning
000
Ġtwice
ĠHeroes
Ġhugging
ĠSurface
middle
Check
Ġpaving
Ġtablespoon
ĠWear
ĠMos
Ġtense
Ġpoison
ĠUpdate
cream
Ġcontainers
ĠHoly
Ġbought
Ġquarter
Ġundone
Ġamounts
Ġincome
ok
ĠLooking
Ġborrow
ĠThirty
ĠPond
Ġredd
Ġstren
ĠPis
Ġassignments
ĠAre
Ġate
Ġregistration
ĠBlanc
res
Ġslept
Ġtiming
ĠMaj
Ġfields
ĠBec
aline
ĠGo
Ġcider
Ġsher
ache
ĠDaisy
Ġbreakthrough
ID
Ġcruc
ĠTRE
reply
Ġstroll
sal
Ġunw
Ġeggs
Ġjet
Ġshore
ĠKr
Ġstandards
Ġmental
Ġsupporter
Ġstretched
Ġrobbing
Ġmelancholy
ĠSH
ĠFigure
ower
Ġrivers
Ġchoices
Items
ĠSL
Girl
hearted
fe
Ġramp
KEY
ĠTsuk
Ġprefers
Ġcess
ĠDirt
Ġhats
ĠWoo
Ġplayer
ĠHERO
Ġconfidence
Ġvegetable
imm
Ġspirit
ĠNEED
Ġfusion
eem
Ġhull
Ġchicken
ĠPay
lean
Ġpersuaded
Ġcommit
Ġtrench
Ġloyalty
Ġ19
always
Ġdim
ĠBLACK
Ġsecure
Ġca
weight
hand
atched
Ġsurveys
Ġrolling
Ġpretend
Ġduck
Ġrabbits
Ġcrossing
adas
cludes
Ġboth
Cook
Ġ..
Ġremember
Ġfurther
ĠYu
ĠSaturday
Ġuntouched
round
Ġblocked
Ġinterests
Ġactually
Ġextended
ĠSurveillance
ĠIf
Ġdisabled
Ġhousehold
ĠMama
Ġbreeze
Ġdisinfect
ĠWITH
Ġcock
Ġinsight
Ġvisuals
ĠHOW
Ġteacher
aints
ĠMeet
Am
ya
Ġsob
Ġint
Ġdragged
po
urn
Ġweddings
Ġfanc
acker
Ġasks
Ġdeveloping
enge
Ġdependent
ĠTow
Ġconfidential
Ġmarsh
Ġseizing
Ġepit
Ġinstrumental
Ġfreeze
Ġmelodies
dig
Ġcling
inis
Ġflush
Ġsuggestion
Ġtucked
ĠHorse
acing
ĠUV
Ġcongr
fly
wolves
Ġsails
ĠUR
ĠPass
Ġliar
irming
Ġclashes
Ġtrendy
Ġfuel
Ġunseen
ĠWaiting
ĠHeck
Ġcorners
bows
ĠAUT
Ġsalts
serious
Ġrecharge
ĠLal
ification
ĠReading
ummy
ĠWas
Ġbombs
bro
Ġwow
Ġdressed
ĠTon
By
severe
ĠCurrent
Ġfinest
spot
ricting
ara
Ġlegion
Ġobtained
Ġreflection
Ġrisk
date
affle
ĠSoutheast
Ġsituation
Ġbuffer
Ġbuck
Ġtint
Ġpotent
ĠCH
ĠHide
Ġdrama
ists
Ġannounced
Ġev
Ġboys
Ġchains
Ġturn
ĠVel
Ġdecisive
Ġcauses
ĠSi
ĠBalance
de
Ġdoomed
Ġvacations
ĠUser
ha
Ġhomemade
ĠReg
Ġdebut
Ġpoorly
Ġshovel
Ġdecency
Ġimportant
Unlike
Earn
ĠCR
ĠCle
stress
Ġalarmed
Ġporch
ĠSou
Ġblindly
Ġentries
ĠOwn
Liber
power
Ġdeposited
Ġhand
Ġpropose
Ġcountries
Ġidle
Ġventured
ĠAmber
Ġmot
ĠOriginal
Ġnovelty
Ġhumming
Ġpiping
save
ĠAway
Ġjuggling
communications
Ġdegree
Ġdominant
ĠWorld
Ġdeciding
pose
uxe
Ġpsychic
Ġusually
Ġsing
Ġtop
ĠWall
Ġsouthern
Ġhandheld
ĠReturn
Ġelders
jew
okers
Ġflexible
Ġcoinc
ĠLog
Ġmeant
lli
ĠSleep
ishers
nothing
Ġending
vy
Ġshuff
Ġlightning
Ġpros
Ġmut
Ġspoilers
Ġjail
Ġrocking
Ġtea
itate
Ġbal
Ġvisualize
Ġvarieties
moving
Ġperformers
iors
Ġsalt
ĠComing
Ġaligned
Ġcouples
Ġirresistible
Ġ42
Ġremembers
Ġfullest
use
Why
ĠNumber
Ġundet
Ġgestures
ĠHa
Ġswallowed
Ġcounter
Everything
Ġenabled
Ġwear
Ġsund
iter
zz
Ġchose
Ġbattle
Ġwheat
Ġsizable
ĠCross
Ġships
Ġ150
ells
Ġmass
ause
Ġbitter
Ġtallied
Ġhunger
ifling
ĠCosts
Ġdraws
Ġbasis
ĠTrans
Ġhors
acious
Ġtouch
Ġfertilizer
Ġplank
Ġoverload
Ġpoint
ĠSecret
ĠKnowledge
Ġoy
Ġlou
ĠPeru
Ġreassuring
keleton
Ġrespect
Ġrainbow
ates
Ġorchestra
Ġtempted
Ġintended
identified
6
Ġgifts
ows
Ġtrove
Ġdisappointing
Ġsee
ĠRock
Ġholidays
Ġlighting
Ġthe
obb
ĠHunger
?
ones
brand
Ġcool
Ġexperts
ĠACT
Ġherb
ved
ocity
balls
Ġembody
Ġoppos
wy
Ġinitially
Ġstretches
ĠCosmos
Ġpurposely
ĠAT
Ġlack
Ġheartbeat
Ġsill
Ġdet
Pe
cases
Cap
illed
Ġmouths
Ġservings
Ġexotic
Ġcompliments
ĠKNOW
Ġsettlement
Ġunprepared
ĠFasc
Ġplayed
Ġabout
Ġseats
Ġpocket
ĠRUN
Ġeagle
ĠEight
Ġdancer
Ġwatched
atmeal
ĠRid
Ġcircles
Ġtaught
Ġsilver
ĠSolid
Ġcrow
Ġdays
Ġmeticulously
ĠFloat
Ġrang
obic
Ġthing
Ġaddress
ĠKatrina
Ġinstalled
Ġincrim
Ġdece
Ġbrothers
Ġconclusion
Ġlargest
Ġrent
Ġpersuade
Ġcrafting
Ġconvince
Ġalright
Ġsickness
Ġdishes
ĠGr
tain
rolled
ĠHarvest
Ġscrapped
Ġcrispy
Ġnose
Ġcelebration
Ġavailable
FFFF
ĠVenus
Ġtallest
Ġamid
ĠWAR
Ġfries
Ġrows
Ġresidents
Ġlong
Ġsmooth
Ġpink
fully
ĠWOR
Ġcelebrations
Ġoutdoors
ĠOwner
pot
Ġsnowy
Ġprofit
uzz
Ġpsy
ĠWHO
Ġagainst
Ġlining
ista
Ġvictims
ier
Ġlane
Ġforecast
grain
Ġbutterflies
ĠSkills
Ġcraving
Ġextrater
Ġforcefully
Ġgiant
Ġshredded
Ġwhip
zed
king
ounds
Ġletter
attery
Ġsensed
Ġlip
Ġfoods
eking
Ġcance
Ġbacks
oppy
omes
Ġclout
Ġprison
ĠEug
Ġalliance
scenes
ARI
ĠPolit
igs
ather
Ġsock
Ġcuriosity
Ġmillions
Ġdiscussion
boats
esy
orient
Ġpad
Ġhearts
ĠHam
Ġthug
ĠExpect
ĠPut
Ġpap
Ġstrategy
Ġrefres
ĠGrey
Get
Ġblush
ĠFam
Ġforceful
ons
Ġpersonalized
Ġoddly
ĠGun
Ġaudience
Ġkicked
Ġsweat
Ġattend
IND
ĠGold
Ġcaptain
Ġfreezer
ĠCOM
Ġextra
Ġhomegrown
Ġmetaphysical
Ġgran
inv
ĠCapture
Ġtw
Ġ8
Ġlegislation
ĠSHOW
ĠSEA
Ġchallenger
Ġwedding
Sadly
Ġsurrounded
Ġdermat
ĠInto
Ġlayers
Ġproducing
chid
Ġconsolidate
Ġassigned
ĠACTION
famous
Ġlanded
Ġdairy
azz
Ġadapting
Ġred
Ġlisten
ĠResearch
Ġpor
ĠPerfect
Ġnotices
Ġlashes
ĠHour
ĠWee
Ġarrange
AAAAAAAA
section
Ġflying
Ġindeed
Ġcondone
Ġcubes
ĠEach
Ġsignatures
Ġtim
Ġrestrictions
Ġskeptical
Ġcardboard
zes
Ġroaming
Ġblockade
Ġvulnerable
Ġingredients
Ġrevive
Ġdri
Ġsurpass
ECK
Ġcollapse
Ġraised
Ġtask
Ġ.
ĠFeeling
Ġseemingly
Ġdeep
ations
ĠAliens
Ġmind
iliar
Ġpayment
Ġun
ĠAnything
During
ailed
Ġcarpet
aurus
Ġegg
Ġslump
Ġsmash
Ġpartially
Ġradiant
ĠTrust
Ġbody
iscover
ink
Ġwhen
Ġheal
Ġgloomy
Ġpun
ĠShine
ule
Ġhassle
Ġrecovery
Ġcreated
Our
Ġhorns
Ġcontinuum
create
town
IGN
ĠMAT
aries
Ġoptimistic
Ġtick
boy
opening
Ġtrusted
Ġtried
Ġfireplace
ĠJunk
iana
irk
Ġsingle
Ġvest
Ġmyth
Ġparent
now
early
Ġblogger
ĠNinja
Ġkitchen
Ġon
f
Ġbelongings
URE
Ġcreeps
Ġindis
ĠED
Ġdelusional
ĠDVDs
ĠBoy
Ġaccepting
ĠTh
Ġprick
Ġchecking
itched
Ġcanine
Ġrocky
Ġescape
Ġmattress
hit
ant
ĠTra
ĠLetter
Ġverbally
stood
Ġdestroyed
Ġhaving
Co
Ġmet
ĠDec
ĠDeliver
Fort
ĠFalse
ĠAsk
centric
Ġstyl
Ġstarted
Ġclimbing
ĠPeach
Ġuncover
Currently
Ġeducation
Ġrepeating
oat
house
ĠTim
Ġimpacted
Ġscale
Ġbalance
angling
shirt
Ġexperiment
but
Ġcrystals
Ġunconscious
Ġrewarding
Ġrushing
Ġonline
igma
Ġfirst
Ġestimation
Ġreflections
Ġpeel
Abs
Ġvengeance
unch
wow
ĠBu
fram
ingly
Ġcentral
Ġcustomize
Ġsparkling
impro
Ġ47
Ġconfess
Ġeye
Ġallowing
Ġanimals
Ġsausage
Ġrestored
Ġharmony
ĠClosing
Ġrequirements
GG
ĠGiant
utations
Ġrecorder
Ġbroken
Ġbeetles
ĠPlus
rible
Ġdudes
Ġpatiently
storm
Ġwith
Ġforced
iphany
works
Ġinterior
OTHER
Ġrefuse
Ġstag
Ġnearly
ĠSNAP
Ġexhilar
Ġbelieving
Ġbumper
Ġdec
Ġbloody
Ġchuckle
oths
Ġconnects
Ġbeing
Ġsub
pain
ĠWeird
if
Ġlean
Ġsadd
Ġresemble
Ġdealing
hack
Ta
Ġinsider
Ġclam
fab
Ġolder
Ġrespectful
rough
Ġpersistent
92
ĠTurns
Ġmasterpiece
iqu
rim
Ġsailed
Ġconscience
roo
Eat
here
Ġremembering
ifty
Ġfood
alo
Ġgrand
system
omach
Ġdunno
Ġcareless
error
zing
Ġ11
Ġfunn
Ġcooled
Ġfeels
Ġlob
Ġpreviously
Must
ĠFork
Ġchat
Ġdump
hips
inc
Ġscra
Ġfixing
Ġexp
Ha
Ġcook
Ġimmediately
ILL
bugs
ĠRegular
Ġscorp
ied
Ġsteered
Ġassistants
ĠFl
Ġwor
Ġextraordinary
Ġlosers
Ġshouts
Ġindustry
hel
idding
ĠRest
Ġthread
Ġmediocre
Ġneedy
Ġpic
Ġalone
Ġtissue
Ġregard
ĠBel
Ġcele
Ġmedal
Ġessential
Ġko
Ġbunch
Ġcotton
Ġmedi
hed
ĠFollowing
Ġlions
ĠCurve
ĠThink
Ġiconic
Ġkicks
Ġas
udes
Ġforesee
ĠWow
Ġdepressing
Ġentitlement
Ġfloor
Ġmaze
Ġeliminate
Ġjuicy
ĠNobody
Ġfamily
ho
Ġgauge
ĠClose
Ġstreamlined
Ġcruising
aven
Ġdrawer
heddar
uns
Ġdistraction
Ġbore
Ġunforgettable
Ġcheered
sort
Ġfact
ĠFlying
Ġounces
Ġtwo
Ġneatly
Ġserve
Ġadjective
ability
ĠInter
Ġtad
ĠWhich
Ġexchange
standing
lled
dist
ĠDespite
Ġpavement
Ġlocals
ossibly
Ġwealthy
Ġoverlook
Ġnorth
ĠEver
Ġcollection
balance
ĠHold
Ġsir
ological
ĠOri
Ġaddressed
ĠUsually
ĠAssuming
ese
Ġmelody
Ġfacts
CI
Ġinappropriate
Ġcompressed
VR
ĠEarn
azard
ĠImages
stakes
icking
Ġtheft
Ġexplain
Ġheats
Ġitems
ock
ĠVery
urtle
mit
rums
ĠTrend
reading
Ġvisc
ushed
Ġobsessed
hee
Ġdevice
ĠAp
Ġpoop
ĠSurprisingly
Ġsailor
Ġdawn
Ġeas
Ġseaw
owder
Ġhating
Ġcared
announced
aware
ĠGN
Ġhistory
ĠWord
Ġadvising
uing
ĠSke
leaders
Ġorig
Ġoutspoken
Ġextras
Ġreturns
Ġbar
Ġfashioned
Ġpainful
actually
ĠBW
Ġanti
ĠThing
ĠPA
ĠEasy
Ġem
Ġpity
These
Ġapp
Ġsmelling
ĠRa
Ġdepths
man
Ġtroubles
Ġpick
Ġforbidden
ĠLet
eenth
Ġuses
Ġcheating
ĠNaturally
Ġmuch
ĠPART
ĠCyrus
Ġmonth
Ġhundreds
ĠBlend
Ġdivers
Ġsources
Ġreminding
ggie
Ġpatrons
Ġrental
Ġdefines
Ġnet
Ġdiets
bes
ĠO
ool
ĠSure
Ġforming
Ġcombo
Ġblock
Ġdiving
Ġoverseas
Ġafore
Ġlocally
OG
inky
Ġsection
ĠChow
Ġposted
Ġpremiere
ĠBlue
ifiable
ord
Ġeastern
Ġsquared
Ġglorious
Ġpret
Ġtranspl
Ġundoubtedly
Ġcircus
uk
ĠONLY
ĠEvery
Ġdefinitely
Ġfourth
Ġshield
Ġmascot
Ġcontacts
30
Ġflat
Ġexpressing
Ġremains
ron
ĠAwards
Ġdancers
Ġnutritional
Ġhonor
Ġproved
Ġinnocent
OUND
Ġbadge
ĠBecause
pt
Ġyouthful
Ġcoc
Ġmil
15
Ġsomebody
Ġprocedures
ANC
ographed
Ġsummon
ĠHE
Ġcomments
ĠCustomer
Ġnoticing
Ġjog
ĠCont
raz
Ġleans
Ġdeeply
Those
Ġcharged
Ġvice
Ġsummed
Ġcram
Ġtrack
Ġpartial
Ġchefs
Cat
phony
Ġcoordinate
Ġpuck
yd
Ġquarters
Ġrisen
Ġheroes
Ġhit
Ġexpiration
Ġgreen
Ġdyn
ĠPot
Ġavailability
Ġinto
Ġsuite
ment
Ġbound
Ġstrange
Ġnonsense
bing
Ġradar
ophone
Ġshowcase
Ġfunds
onder
Ġlobby
Ġimprovements
Ġpenn
Ġafterward
Ġfollow
Ġplates
ummies
ĠFantastic
pre
raper
Ġgimmick
forming
ĠThey
Ġpilgrimage
ĠChild
Ġdrifting
Ġpol
Ġabras
ĠRemember
ĠBlow
Ġfell
heartedly
inger
Ġlaunches
Ġdeepen
Ġmechanism
Ġfake
Ġmiss
Ġcovers
ĠStarting
Ġmoon
Ġcheat
Ġpositive
ĠNear
Ġstrings
estate
ĠGlad
lo
Ġproblem
ens
Ġweakness
ĠX
Ġindependent
Ġhyper
Ġeverybody
Ġglobe
Ġdominated
Ġtipping
ĠNewly
Ġunderstandable
Ġsimpler
ĠUn
ĠSwing
Ġswitching
swing
Ġbarely
Ġpens
door
Sp
Ġsunset
Ġgone
Stay
Ġpony
Ġcore
ĠPossibly
utes
Ġbachelor
addle
V
Without
Ġanything
Ġkitchens
Ġagon
Ġsmear
Ġdissolve
ussed
ĠHeavy
Ġinhabit
Ġlifts
ews
Ġcourses
Ġshares
isive
Sup
life
cl
Ġreporter
Ġphrases
ĠSO
ki
ĠHyp
Ġcategories
asse
Ġeffect
ĠAlthough
Ġrebuilt
Ġheaviest
Ġloaded
Ġaffection
Ġtighter
oooooooo
met
Ġinstance
Ġcomplaining
ta
erve
ĠShut
Ġclone
Ġblessing
Ġworn
Ġcoll
Ġencyclopedia
Ġgl
heses
bled
Ġshouting
Ġaccount
ressing
ĠSav
Ġflap
enth
Ġnot
Ġchess
ousel
ĠMold
Ġpoking
past
Ġcease
Ġpromotions
Something
lim
Ġwildly
ĠBird
Ġfifty
arse
ĠGO
wo
ich
Ġstack
Ġtagged
EEE
things
Ġlovers
Ġpenny
Ġfrag
Ġloops
ĠRevenge
Dream
Ġmighty
Ġplunder
ĠMeh
Ġharsh
Ġannoying
Ġexample
ĠConf
Ġexceedingly
Ġskipping
Ġclashed
ĠContrary
Ġvenue
Ġwithstand
pres
Watch
Ġcreative
Ġsealed
Ġtwitch
ĠFunny
Ġsavage
stone
Ġremarkably
Ġawkward
Ġwoes
Ġflood
Ġcoin
Ġboards
Ġunlikely
lest
Ġmagn
ĠSU
ĠOmn
Ġhonors
Ġanywhere
Ġignoring
Ġteaching
Ġsights
ained
successful
Ġfurthermore
ala
Ġgru
ĠFeather
iked
Ġorn
Mor
ĠGardens
next
ĠAddress
asts
Ġyoga
Ġuniversally
ĠPEOPLE
Ġpanic
Ġsucked
Ġwolves
Ġdonations
ĠFOR
Ġbonuses
is
Ġdelight
Ġwindows
Ġbicycle
neath
ĠGalaxy
ĠGods
Ġtargets
Ġclearly
Ġspecies
aron
coming
Ġjuices
Ġenlight
Ġprocess
Ġspoil
Ġbisc
Ġundesirable
iment
ĠHouse
Ġsnakes
ĠStead
Ġprivacy
ĠFill
aku
dark
rology
ĠTah
analysis
Ġfail
Ġruining
run
Ġmasks
Ġfeed
Ġunstable
Ġcane
Ġformula
Ġmagnetic
Ġculture
Ġintuition
ac
Ġclear
Say
Ġreg
Ġcricket
ench
ĠCO
Ġhypnot
ern
down
asty
Ġbeaten
Ġrink
birds
Ġhor
ĠReve
Ġaspect
Ġsummary
table
Ġpollen
markets
Ġinstall
ĠSunny
Ġpets
Ġinjuries
Ġplain
Ġmount
Ġmicrowave
Far
acky
vre
ĠWo
Ġbeast
fighting
ĠMack
Ġdaughter
Ġswarm
Ġfills
Ġwil
ĠSomehow
Ġsolved
Ġooz
Ġleaving
ober
Ġchar
Ġstrict
restling
Ġjunk
ulates
Ġlar
atures
ased
Ġrehears
Ġdefine
Ġexceptions
ĠCat
Ġcheering
Ġphotographer
ods
Ġreflects
would
Ġsober
fish
ĠFeast
Ġconvenience
Ġnamed
ĠDock
Ġstressed
Ġdu
Ġopenings
Ġcommittee
ĠRAM
Ġletting
Ġscenes
Ġaccomplishments
eline
Ġqu
Ġflow
ĠWood
Ġworked
Ġswimming
Ġ
icer
Ġsticks
rescent
Ġfulfilling
Ġfriends
Ġpouring
aped
Ġgaming
idget
Ġoutsider
Ġdoubts
ested
ĠKick
Ġlooked
Ġsteer
Ġsettled
worthy
ĠAnyway
Ġup
ee
ĠHarmony
Ġchore
axe
iate
Ġpressure
Ġpieces
Ġrival
Ġphenomenon
Ġpaw
ĠDing
Ġexchanges
Ġhast
ĠPrior
Ġimply
Wan
Ġnor
Ġcoupons
Ġsurpassed
Ġsuperst
Ġnom
ĠKN
Ġcheated
vere
legged
Ġcalmed
Ġcarrots
Ġbrushing
Ġlined
Ġhop
Ġtaxi
Ġmonarch
Ġunsur
Ġrib
ĠHarmon
Ġsenses
Ġauthent
ĠPhone
Ġaccommodating
Ġhysterical
Ġinevitable
ĠThose
C
Ġopt
har
Ġbuddies
going
Ġunity
Ġbonus
ĠTaken
Ġadjusting
Ġgirlfriend
Ġy
Ġ80
Ġopportunity
Ġdrop
NER
Ġlifetime
Ġresemblance
Ġpoisonous
Ġadmission
Ġpalm
Ġexcitement
ĠB
ĠWork
ĠGard
Ġpictured
Ġkin
v
rou
ĠCity
Ġblow
omb
Ġnatives
Ġrebel
Ġfamiliarity
Ġlin
ĠStudio
Ġbye
aged
Ġinteraction
Absolutely
Ġhers
OPE
Ġcoincidence
Think
Ġtags
Ġdeepest
Ġgob
Ġengagement
ĠTo
ĠEVE
started
Ġhunt
Ġhuman
iren
Ġvanity
Ġdescribes
Ġmenace
Ġcre
Ġbrilliance
Ġlumber
Bang
Ġion
ĠHero
ĠNost
Now
Ġsufficiently
Ġlesson
Ġshortcut
Ġgrunt
asion
aur
Ġeliminating
ĠPS
mes
Ġsushi
Ġmashed
ĠTort
able
Ġcommemorate
keeping
Ġ0
ĠMuscle
Ġelusive
Ġgeek
Ġbona
Ġjets
Ġvisiting
Ġdub
Ġlife
Ġconservative
Ġslick
Ġtyped
ĠDaily
ĠSeeing
tur
ODY
Cy
Ġdo
ass
Ġordinance
Ġlunch
Ġblended
Ġdragging
Ġsending
Ġdiamonds
ĠRocks
Ġassociation
ĠGrow
hh
il
itions
uge
Ġrestaurant
Ġdrawing
Ġkidneys
ĠCongratulations
ĠMaster
Ġspaghetti
together
Ġdivide
ĠSTOP
Ġresidency
drive
osity
Ġsincerely
enance
Ġprevention
Ġbl
Ġobsess
Whoever
Ġoutgoing
Ġpossess
ulas
Ġstrive
Ġexamination
Ġtech
Ġrealizes
Ġprovides
ġ
Ġagent
Ġhops
Ġtend
otta
Ġjoyful
Ġleaf
IRE
Ġtrip
Ġcapable
Ġwinter
Ġtemperatures
ongh
ight
Ġgorilla
Ġchop
Ġcurb
Ġappealing
Ġputs
Ġsemi
ming
ĠRuins
guy
rooms
Ġcomplaints
ographies
Just
eno
ATH
dep
Ġrestraints
Ġrestricted
Ġbasically
rench
Ġpatch
Ġclos
Ġsuperficial
Ġothers
ĠButterfly
Hey
bers
Ġhid
Despite
Ġstepping
Ġweight
cycl
Ġvisitors
dule
Ġkarma
playing
Ġwars
cake
ose
ĠZombies
Ġoccasionally
Ġoriginated
z
Ġbarrel
ĠFriendly
Ġitching
ception
Ġthen
Ġbi
aga
ĠFool
82
Ġcommem
Ġdinner
abe
ĠCandy
ĠSw
Ġlinger
Ġintake
Ġextending
kn
Ġhorizontally
ram
wheel
Ġpegged
ĠChili
Ġexcluding
ĠWithout
Ġsharp
Ġdam
rm
Ġexpire
Ġsavvy
ĠSettings
Ġfloats
ING
ĠPrice
ucker
Ġall
aned
Ġpassword
Ġspeaks
hers
owed
read
umbled
Ġpinned
Ġsecured
Ġleading
person
Ġstocked
Ġthief
Ġneeded
ĠJelly
Ġannual
Ġslap
Ġrented
ĠWin
ĠMales
Ġkill
Ġmilk
Ġbaseball
amb
Yes
Ġoverheard
Ġsquee
aches
ĠBUR
Ġwomen
Ġtouches
Ġthou
ans
Ġpopped
ĠGirls
iver
II
really
ĠSpain
Ġwidth
Ġfar
ĠDestroy
Ġdisappeared
Ġraise
Ġll
Ġexcept
Ġsees
Ġisland
Ġwife
ĠStage
Ġroyalty
Ġexpressions
Ġconsciousness
team
Ġspontaneously
Ġvigil
Ġlongtime
currently
Ġsole
deal
Ġremained
Ġscript
Ġgrowth
Ġsteel
VP
Ġnoisy
iance
Ġapologizing
CH
ĠBoom
Ġstyle
Ġtremendous
ince
imble
Ġinformative
Ġmyself
try
Ġlosses
ĠWorth
Ġmorbid
Ġexplains
Ġwit
arl
Ġconsiderable
Ġinternal
Ġcounting
ĠSince
Ġpeek
azing
Ġfacing
Ġchamp
Everyone
to
Ġfortunes
Ġwrest
ĠRS
ernal
omething
Or
Ġlurking
Ġrelated
Ġtopics
Ġleaping
ĠKind
yl
ĠPole
of
Ġvalues
ĠBus
uan
Ġcharacters
Ġcomedians
el
ĠPower
Ġtooth
ITY
Ġattendance
ymes
Ġcloth
Ġextensive
iday
ĠWhen
Ġcoordinating
ĠRenaissance
Ġchampions
Ġunlimited
Ġbeen
no
ĠShake
Ġimplies
augh
gin
Ġstriped
Ġprocure
Ġcontrol
dream
Ġdepicts
Ġcraft
Ġherself
ĠHand
Ġmagic
Ġremarks
ĠIndividual
Ġsubmitting
Ġgamble
Ġcleared
Ġmedieval
Ġcollege
Ġcoordinator
oline
BO
Ġboast
Ġdisembark
ĠHAL
ĠTab
Ġcomforting
ĠAvenger
Ġcurled
EEP
Ġquickest
bar
Ġnight
Ġadditional
cing
up
Ġmirror
conf
Ġ69
Ġcottage
Ġphotographs
GR
RS
Ġcries
Ġbout
ĠFL
Ġpertaining
piration
Ġstarch
Ġpeers
Ġfore
ĠApparently
ĠDreams
ĠSal
falls
Ġsubscription
Ġsurvivors
Ġbolster
Ġdeserves
Ġurban
Ġreview
Ġunpleasant
Ġbrave
Ġseeing
ĠHigher
Ġratings
Ġwakes
Pat
izz
Ġsecrecy
eer
ĠPromise
Ġfoll
ell
Ġbrainstorm
Ġvel
Ġunexpectedly
ĠAAA
ĠPelicans
young
ut
ĠCheap
Always
ĠAss
Ġsu
unique
Ġprep
flake
Ġpublicly
Ġachieving
Ġcitizen
Ġgrows
Ġbranches
Ġhardly
j
ĠAbove
Ġproceeds
ULL
uff
market
Ġends
Ġguest
ĠGeorg
Ġdisrupting
Ġrigged
es
Ġchallenges
ĠCourse
Ġoverse
Ġsunk
Ġtrouble
ĠInv
Ġsaving
RR
Ġnick
Ġeng
cos
Ġtheme
ĠCOUR
Anyway
ĠShould
ĠNormally
Ġche
Ġwant
Ġbelieve
Ġdeaf
Ġmantra
Light
Ġtent
Ġnests
ĠLe
ĠARE
IRD
Ġconsultation
Ġdog
ora
ĠWatching
Ġtre
iences
Ġ83
Ġangel
Ġinviting
ric
Ġdipping
Ġleadership
Ġbuzz
Ġtwists
ĠAthlet
ĠSending
Ġscientists
ĠKang
GL
again
ĠRays
Ġintegral
Ġinvolve
ĠCo
eb
Ġbrush
ĠDism
ĠDevelopment
uffs
ĠDirty
ĠOTHER
Ġterritorial
Ġappears
Ġpostpone
Ġlands
Ġstress
Jew
ĠSail
Ġpainter
Ġbearings
Ġparasitic
oliath
Ġfreshly
ĠJune
alone
Ġsinging
Ġunchanged
Ġsomething
ĠWind
iving
Ġfast
Ġblessed
als
Ġcomponent
opy
Ġha
Ġgrilled
lling
Ġtreasure
Ġwaves
Ġfurn
Ġseparated
ĠBanana
Ġfelt
ĠPearl
Ġreson
Ġlaw
ters
Ġgn
design
Ġfriendly
Ġintentions
ĠReb
Ġcrippling
Ġcried
ĠAB
Actually
Ġknitting
Ġpersonally
kered
Ġprimal
Ġbuy
cs
Ġrelating
ĠSubtle
ĠJUST
IDE
Ġvoic
ĠCent
Ġqual
Ġreceives
+
faced
ĠChallenge
Ġ36
ĠFantasy
Ġspir
Ġcheck
idays
HL
Ġenjoy
ĠGood
Ġwashing
ĠCancel
Ġyo
Ġflo
hat
Ġmemor
eds
Ġgrav
Ġpriorities
ĠArtist
ĠAcademy
pless
ĠChrys
Ġband
Ġacidic
Ġfinished
Ġturtles
Ġcrabs
ests
-
Ġbuckle
Ġchips
ining
Ġget
Ġlarger
Main
Ġshocking
inosaur
Ġmud
Act
avored
Ġovercome
Ġchapter
Ġsignature
ISS
Ġmovements
ĠSymptoms
Ġexperimental
Ġrun
Ġenact
ĠGround
ĠMilk
ĠRevolution
Ġhorrible
Ġcompatibility
Ġcamping
Ġshowers
alf
ĠAugust
Ġitself
Ġfossils
Ġdecades
iss
Ġweather
dry
Ġbount
Ġteens
leck
78
Ġoutdoor
EAR
ĠFirm
ad
affe
ĠDog
Ġapplied
ĠRandom
Ġfoundation
ĠSpot
ĠFrom
Ġbike
Ġsarcastic
ĠGur
oo
oki
Ġsuggested
Ġchunk
ĠAncient
Ġdepartment
Ġpersever
Come
Ġperks
Ġexplaining
Ġhumor
ĠDie
ĠStew
ĠSpring
Ġfounding
Ġcasually
Ġfluffy
Ġsave
ime
Ġshadowy
Ġwelcomes
Ġoverfl
Ġcommanding
Ġfame
Ġhipp
Ġdaunting
Ġattracted
Ġwise
id
Ġswapped
Ġkeeps
Ġpatented
OL
lessly
Ġsocially
Ġdorsal
aunt
ĠHunters
ĠStories
Ġcorrecting
KK
lp
Ġflooded
Ġapparently
Ġbouncing
ossom
Ġammon
walk
bag
ender
Ġ15
Ġreverber
Fake
forcer
Would
Ġhardware
reet
oa
Ġgathered
Ġresponse
Ġtriangle
stals
Ġss
ĠUsing
Ġfront
Ġdone
Ġglaring
Ġhaircut
Ġwreck
ĠKenya
Ġtelephone
boat
Ġswitched
ĠGA
Ġsimmer
ants
Ġbra
Ġdesk
chen
Ġmarch
Ġextent
ĠPersonality
mmmm
touch
Ġnewspapers
amps
haps
U
Are
Ġmaintained
Ġtrue
ĠPr
Ġdimin
Ġmagnet
Ġimaginative
west
rig
ACK
girls
Ġmodesty
ĠVive
ĠLot
ĠBy
ĠMiz
Ġsuffering
Ġreduce
Ġfreely
Ġpal
Ġfreeing
Ġrock
Ġexperiences
fs
Ġhem
people
ĠBom
Ġcrashing
Ġreader
Cold
Ġscrutiny
ĠSix
Ġsmile
ĠLav
Ġenthusiasts
Ġcoloring
ĠBetter
Ġthanking
av
ĠSee
Ġunus
ĠSomething
ĠHeight
ĠThree
Ġangered
igraph
ĠTem
ĠRoll
Ġspan
Ġargument
Ġfungus
Ġcompletes
Ġconfigure
ĠTuesday
throp
ĠCurrently
Ġtold
itude
Ġnud
aying
bage
Ġnon
Ġsoul
ĠLine
reci
empl
Ġslam
ĠSl
Dr
Ġterr
Ġmile
ĠCARE
ro
Ġrip
17
ĠRomantic
fing
ilian
airs
Ġpin
Ġdetermine
ĠTrees
ba
aza
ib
Ġseek
Ġlonger
Ġsided
ĠFun
Ġrefreshed
kill
ĠCollect
happy
Ġversus
aah
ipp
Ġhat
Ġface
Ġunsett
Ġchannel
ĠKa
Ġhyp
Any
has
Food
Ġapologize
ĠYOU
oday
Ġattacking
Ġacademic
ĠPit
gent
Ġstartling
Ġspores
Ġpointed
Ġpicnic
Ġchees
Ġcast
ĠHome
Ġcharming
araoh
Ġphilanthrop
ĠBle
Thanks
Ġteamwork
Ġemployment
Ġagree
give
Ġbehalf
ambling
Sleep
Ġfibers
Ġwheels
itative
Ġdude
Ġflare
Ġcamp
ĠCinnamon
Ġlargely
ĠPocket
Is
Ġbeads
Ġloop
Dis
ĠTurbo
bral
Ġpermitting
ĠSant
Ġview
Ġenormous
OUR
Ġadjustment
ALK
imi
Ġgathering
idental
ĠHello
Ġcompetitions
Ġdy
Ġcrank
Ġtunnel
Ġtypes
Ġgenerally
paper
00
Ġknocks
suit
rage
ĠMiracle
Ġinquire
Ġevaluations
Ġbuilder
Ġleft
ler
Ġloyal
Ġharmon
ĠSahara
Ġbursts
ĠAction
ĠReturning
Ġprobing
Ġapproaching
Ġantique
Ġworldview
Ġser
Ġgau
Ġlike
ĠStates
Ġcontra
Ġrespond
Ġboarded
Ġv
Ġcurl
Ġcoax
Ġfeel
Ġsticky
ĠLET
Ġfaded
Ġrel
ĠPlay
Ġbranding
looking
Ġseldom
Ġthoughtful
unction
Ġpics
Ġultimate
PH
limits
Ġthor
Ġrecording
ĠTake
Ġprominently
Ġspeak
Ġmansion
Ġinteract
Ġknit
ĠDarkness
ĠCart
Ġconsistent
Ġmale
Ġnursing
ĠFancy
Ġstump
rip
Ġ5
sever
Ġeconomic
ĠCoalition
ousse
Ġlobster
ĠOnce
Ġpeanuts
Ġtast
Ġsaga
Ġsupply
Ġsaves
eling
ĠLose
OLD
alling
Ġhur
ĠDream
Ġaimed
ĠHOL
Ġinvolvement
Ġenthusiastically
patient
Ġattempting
Ġdose
Ġfeet
Ġjudgments
ably
Ġ130
raviolet
Ġbogus
ents
Ġchops
thing
Ġcherry
Ġgateway
ĠServing
Ġblogging
ĠSaid
ĠWILL
Ġdelic
Ġsubjects
ĠOften
roll
Ġpredicament
Ġdeserve
Ġgrounds
Mind
don
aaaa
Ġste
Ġchildren
Ġbeneficial
Ġrend
Ġworkload
'-
Ġrecipients
ifting
AB
ĠPip
Ġtrapped
atsu
Ġround
ĠFinish
ĠEverywhere
ĠDrum
Ġtipped
Ġded
asket
Ġmend
Ġnegativity
Ġreferee
ett
Ġmove
Starting
Ġpossibly
Ġwish
by
Ġtoes
Ġconvey
ĠGi
Ġdates
Ġrobbed
As
forth
ruce
ĠJoe
ĠProtect
ĠMA
ĠEgyptian
ĠStill
ĠReality
ortunate
Ter
Ġbooth
Ġendeavor
ĠPresident
Ġlouder
Ġphrase
rene
Ġcheerful
Ġmush
Ġrevelation
rees
Ġowner
com
ĠOfficial
Perhaps
Ġhub
ĠNeedless
ĠSHOULD
UM
Ġbug
Ġul
ĠAsia
Ġgal
Ġusual
head
0
Ġshoulders
Ġviolence
Ġbrushed
ess
Ġshell
ĠVarious
Ġreason
ĠCold
Please
pped
olds
Ġvery
Ġdisbanded
ĠSm
Ġstiff
Ġsavings
arts
ĠSne
Ġsubtle
Finally
Ġsoil
choice
Charg
Ġex
Ġtens
Ġlimits
Ġelectrical
Ġgardening
ĠYou
Ġsummoning
Ġorganization
ĠCom
R
ĠTosh
Ġsnag
Ġbenefits
Ġtragic
Ġwants
Ġtourists
Ġhurts
ĠSit
ĠGl
Ġbrawl
Ġspheres
asc
Ġused
Ġphenomenal
Ġboxes
Ġ00
Ġceremony
aters
Ġjewelry
Ġsweating
Ġvoc
Ġtiles
Ġrack
ĠSOM
Ġlegends
Ġdepending
ĠBEL
thy
ĠSett
Ġjoint
Ġfre
We
ilk
Ġsits
body
Ġtunes
otted
Ġreaction
inf
Ġinclusion
Ġbriefly
Ġmatrix
ĠBones
Ġpurchased
Ġpushes
iles
Ġexercise
Ġ65
mission
Ġattachment
ĠGa
Ġcultivating
Ġmodel
Flying
Ġirrit
ĠWinn
Ġflag
Ġexamined
Ġassassin
ĠAvoid
Ġshelves
Ġogre
Ġpatronage
ĠSetting
yth
Ġemphasis
Ġdebated
Ġhitting
wash
Ġcompelling
Ġpow
hang
Ġworried
Ġwishing
Ġlet
anical
Ġinfluential
Ġprowess
Ġanticipation
Ġleader
Sounds
ĠBonus
Ġcou
Ġcleanup
Ġdrives
ĠSud
ps
Ġdolphins
Ġcharacter
order
ĠRoom
Ġmast
Ġbubble
Ġlock
ging
Ġblinding
latable
Ġscrutin
Ġwanted
Ġescort
ĠSelf
Ġactions
ography
ence
ussy
Ġdecided
Ġdips
Ġexcuses
Ġstern
Ġpaying
Ġill
Ġbit
ĠTHIS
ession
Ġtimes
Ġcups
icy
pection
Ġcrisis
travel
Wa
Ġcro
Many
ude
Ġpush
ĠTough
ĠMidnight
Ġcautious
ĠTeachers
uations
ĠWorking
Ġrepaired
ĠCrash
Ġgoalie
Ġbarren
Ġmarried
Ġcoral
bus
Ġjaws
Ġswirl
Ġkitten
ealous
ĠALSO
ĠMaking
Ġdesserts
Ġcert
Ġpounds
AW
modern
Gro
ĠHUN
Ġminded
Ġavocado
Ġreproduce
Ġintens
Ġunnatural
Ġpric
ĠSet
Ġsuspense
Ġinsecure
Ġfinger
ĠGrape
both
Ġrarity
Ġdisliked
Ġsellers
ĠIce
Ġsearched
Ġbottle
du
Ġscram
shaped
sw
Ġbeverage
Ġobs
Ġos
Ġpain
Ġsuperior
Ġpunished
Ġstarve
late
ĠSend
Ġsanct
Ġrepair
Ġtired
umbles
Ġhighlight
ĠJob
Ġassumption
Ġpotion
Ġspies
Ġmadness
Ġcle
Ġtotal
rast
Ġplotting
poly
ĠLoving
ĠDe
ĠDon
Ġincidentally
Ġparties
Ġresume
ĠBoth
Every
ĠKatie
eter
Ġshed
Ġsunlight
Ġhind
ĠThermal
Ġphoto
Ġunearthed
Ġdefense
oe
scale
Ġencouraging
Ġscaven
Ġstaying
usted
Ġrounds
ĠExplos
Ġlineage
ĠAmbassador
Ġfilms
Ġverge
Ġcoach
Ġought
Ġbookmark
ĠDavid
app
other
occ
Ġyears
ĠBAR
ĠMake
ĠComfort
Ġoccurred
Ġreference
Ġflickering
Ġdead
Ġdrive
ĠGrace
Ġperk
Ġverify
icate
Ġchalk
gy
Ġsequ
RECT
Ġfet
y
over
Ġcrust
iflower
Ġendings
Ġgist
Ġplans
Ġdangerously
fff
ĠWizard
aks
Ġarrangement
Ġrenov
Ġopening
Ġfluid
uss
ĠDisapp
Ġcastle
ĠFrenzy
ĠMart
chall
Ġrailroad
Ġgadgets
fy
Ġweird
Ġeffective
cept
Ġback
web
cer
OS
Ġidentical
Ġguess
Ġfortune
ĠQuiet
ities
ĠPig
host
ĠMembers
PLE
Ġexpires
Ġdiscreet
Ġexpel
Ġlingering
Hide
rg
Ġ104
ĠLeaving
ĠTable
Ġspeaking
Ġdominating
eez
Ġplease
Ġcube
Ġsimple
Ġsurviving
Ġmagazine
Ġfeeds
ĠVietnam
wed
Ġunrel
Ġcombine
Ġannouncing
ĠSlightly
Ġraises
Ġprey
Ġcheer
Ġterm
Ġclocks
Ġstunt
Ġmix
oras
Ġsip
Ġepic
ĠSN
needed
ĠKats
Ġpoems
aping
ĠCountdown
Ġslightly
Ġupbringing
Ġ*
ĠLead
ibly
Ġtorn
Ġimagining
Ġsilk
Ġtease
ĠEarly
Ġdistracting
Ġadop
Ġplanet
Ġconducting
ĠResults
Ġsle
Ġcongratulate
Ġwhether
ĠLadies
Ġevenings
tem
frame
Ġsentiment
Ġkinds
Ġquite
Ġsolid
chn
Ġscrap
ĠVin
ĠFinding
Ġdrove
Ġpowerhouse
Ġoptim
Ġcar
ings
ĠGy
nexpected
ACT
Ġwi
ĠSilver
Ġdarling
Ġpass
rah
ĠStrength
Ġtemples
Ġrealize
member
Ġparticularly
ĠNormal
k
Ġwond
Ġexplored
Ġtouched
omp
PC
ksh
Ġprioritize
Fl
ĠInitial
hem
Ġpod
Ġswamp
Ġaesthetics
Ġgro
ĠSnow
Ġpushed
ĠMo
Ġsprink
ĠEvening
black
edge
Nobody
iti
apping
Ġfish
Ġwasted
ĠRecently
mouth
ĠBam
Ġreve
ĠWell
Ġcoins
Ġtaunt
Ġromance
Ġlunar
ĠEarthqu
Ġenables
Ġmoms
ĠCy
Ġgeneral
Ġcraz
itt
Ġreorgan
ĠEmb
ring
Ġrethink
that
Ġshaking
Ġordering
Ġcivilizations
Ġclosest
ĠRef
ĠChop
Ġintest
Ġbomb
Ġopportunities
Ġbelonged
awk
ĠBeat
Ġdeeper
Ġabsolute
ug
ĠSwift
ounding
Ġreconcile
Ġshutting
ible
Ġcritic
Ġpersona
Ġsinking
Ġplentiful
Ġtends
ille
ĠHog
Ġhybrid
Ġpicking
ross
mud
ARE
ĠApproach
ĠHai
Ġafloat
Ġscramble
Ġmaintain
Ġdedication
Ġattractiveness
Ġspots
Ġspree
Ġpreservation
ĠIsabel
och
ĠInner
Ġconfrontation
ĠStrawberry
holes
ja
ati
Ġcrawling
Ġdefault
Ġvict
Ġsupported
Ġshops
Ġenemies
ĠGlow
Ġflash
ĠGame
Ġcamps
Ġtreatment
rib
inal
ĠSierra
Ġbanned
fur
angler
Ġexciting
Ġdivine
YE
olding
Ġvinyl
pieces
Ġmaximum
Ġ110
Ġfres
protein
rous
ATS
Ġpersuasive
Ġnumb
Ġsurprises
Ġpremium
Ġstimulates
Ġcoff
wit
Ġweb
Hold
ĠChar
US
UAL
ĠBadge
seek
Store
Ġsmiles
ĠALWAYS
Ġwaters
ĠForm
Ġstrongest
Ġsneakers
Ġappet
Ġscreenplay
Ġducks
L
Ġtimely
ĠMeter
Ġstalk
BE
Ġstruggled
Ġengines
Ġmulti
UL
Ġbliss
ĠMakes
Ġharmless
Ġvibration
Ġemerging
Ġcur
Ġawhile
Ġimportance
ĠAlleg
Ġbones
Ġpathetic
Ġseal
ĠFuji
Ġdislike
ĠRing
gar
Ġpool
Ġvocals
rated
Ġthanked
Ġcriteria
ulp
ado
ĠWhy
ĠAdventure
unny
Ġbeverages
BUG
haul
85
natural
Their
Ġpump
cy
Ġconspiracy
Ġawake
Ġdense
Ġcousin
Ġstadium
planet
Ġsurely
Ġultra
Ġsym
Ġfun
Ġanymore
Ġkept
ĠREAL
Ġdrawings
Ġmisfortune
Ġpractical
Ġbabe
Ġtanks
Ġfound
Ġinstructions
Ġdisrespectful
Ġfeeding
Ġobey
Ġmon
Ġimmersed
Ġvalue
Ġintention
Ġarrogant
Ġpulled
rost
iggle
Ġresistance
Pr
citizens
Ġprett
Ġclothes
Ġrecipient
Ġgum
Ġapplying
Ġpermanent
Ġmature
Ġgag
Ġdisplaying
Ġskirts
grounds
angled
ĠSUPER
Ġuncommon
wrong
Ġb
ĠSuccess
Ġquit
Ġdes
Ġhappening
Ġhash
Ġconnected
Ġ23
Ġsp
ĠDuo
Ġembraces
ep
Ġgadget
Ġtrial
KE
Ġjumped
Ġbands
Ġsmiled
ari
az
ure
orry
powers
ĠPurs
Ġtrait
er
ĠAnswer
Ġcompassion
Ġstakes
Ġfulfill
ĠDay
pin
ĠTP
ĠPalace
owing
cut
Ġfirm
Ġshaved
Ġtension
Ġpurified
ĠPoint
ĠEleven
ĠMedicine
ĠRev
ĠNatural
Ġseize
Ġseventh
Ġow
ex
ĠPutting
Ġg
Ġpillow
ĠBesides
Ġsalute
Ġinfiltrated
Ġabstract
ĠDU
Ġfut
Ġnoodles
Good
Ġwhale
Ġboo
ĠBot
Ġstand
Ġfeat
Ġstray
ĠCanary
Ġworm
Ġwatches
Ġpossession
Ġabundantly
Usually
Ġbolt
ĠFuture
Ġrewarded
Ġpacked
Ġus
Ġneigh
ippers
Ġsab
Ġboxed
ĠWhenever
Ġfav
OT
Ġchest
Ġpancakes
Ġdictator
Ġvia
Ġsquash
ve
Ġhope
green
Las
Ġterrifying
Ġflu
Ġshoved
Ġbond
Ġbulletin
ĠHOT
alis
Ġram
allows
Ġsculpture
Ġflipping
ĠSwe
Ġmarching
ĠFebruary
Ġposture
val
Ġexit
Ġlittle
Ġrebound
ĠRather
ĠRemove
Ġrestriction
area
Ġyou
Ġcompleted
Ġallowance
Ġfishing
Ġonto
Ġswallowing
Ġdistinct
Ġmake
Ġlottery
Ġhealthier
Ġcombination
idious
ĠSting
rd
aint
Ġsupportive
ĠFood
Ġdeceptive
Ġwax
Ġdiscovered
Ġhorn
alls
ĠRiding
Hot
Ġsham
ical
Ġarises
Ġner
Ġaboard
amen
Ġpartly
94
borough
ĠNote
Ġglean
ĠCreep
ĠBUS
ĠHOUSE
Ġcongen
20
Ġinstruction
Ġmor
Favorite
RP
Ġil
Ġloudly
Ġillegally
ĠDNA
Ġ6
ople
Ġportal
Ġstrip
Does
ĠSol
store
Ġcrab
Ġcommand
Ġhockey
Wo
Ġpardon
ized
Ġlocale
Ġpotential
Ġmedicine
Ġwriter
RI
Ġju
Ġbites
itten
Ġhangs
Ġcapturing
ĠPrevious
Ġconsistency
Ġchained
hm
ĠVital
Ġcleans
Ġdie
Ġhardships
Ġexcess
Ġcaring
Ġmethane
opard
Ġuncomfortable
Ġconcerns
Ġneeding
ĠYah
pound
Ġsore
ir
Ġperfected
ugs
ĠHip
TV
arella
robe
Ġmuseum
ĠWay
Ah
Ġpond
Ġsweater
Ġimportantly
Ġsignals
Ġ1830
ĠPew
Ġembarrassed
Ġrice
Ġdarkest
Ġrese
ĠHarbor
Moving
Ġdebt
Ġfooled
Ġshall
Ġchoking
n
Ġcancel
X
ĠAble
Normally
Ġunlike
Ġslightest
ĠLE
OD
Natural
Ġcuisine
ids
Ġrecordings
Ġthere
ĠWake
Ġguests
ĠCount
ĠSwim
kb
ĠPete
amm
ally
Ġadmire
Ġdeceive
unning
Ġdart
ppers
Ġneck
IVE
izzard
Ġesteem
Ġmakes
ĠEV
ĠRow
ĠDad
Ġpresently
bit
Ġadjustments
Ġversion
Ġguarantees
piece
OOOOOOOO
Ġ114
olog
Ġconsidered
Ġgreatly
iven
Ġpaste
Ġapple
uitous
Ġaut
ĠThings
Ġstomach
Remember
Ġbreadth
Ġheadphones
Ġseeds
Ġurgently
stated
Her
ĠW
Ġskin
Ġsunny
Ġfunding
aker
Ġ27
ious
sized
ĠQuality
Ġblast
Ġclassroom
Ġbright
ozy
Ġfrom
ĠLittle
help
Ġthrowing
aws
Ġjumps
Ġhazard
Ġperfect
Ġreasonable
ĠJew
ĠTeach
Ġpermitted
Ġfarmer
ĠConsidering
Ġfinally
ĠHer
Ġpursue
Ġreality
Ġshrinking
An
Ġco
Ġupfront
ancing
ĠC
ĠTurn
Ġsums
Ġpudding
ĠChic
Ġhabitats
Ġfavors
Ġly
OR
ĠThunder
Ġtigers
Ġwest
zanne
hin
aciously
Ġoverrun
Ġlungs
Ġperformed
Ġbull
log
Ġelev
Ġcomed
ĠFIR
Ġsc
Ġkeeper
Question
Ġdissatisfied
ĠThat
Ġreinvent
Ġrebels
Ġmajority
Ġvolunteer
ĠMysteries
Ġmine
Ġadrenaline
Ġaverage
AK
Ġpassed
mix
Ġcue
Ġlemon
Ġmaps
ĠShadow
Ġhaunt
Ġstash
Ġsciences
ĠYak
ĠTW
Ġscreaming
Ġodds
ager
Ġreb
Ġjewels
Ġtight
ched
ĠComedy
ĠDJ
Ġclimbed
Ġarms
ĠSpark
Ġbro
ĠHe
ĠHeard
rol
66
Ġmand
Ġsustained
Ġchip
Ġattractive
pl
ĠCorrect
ge
Ġhapp
Ġtedious
game
zen
Ġshorthand
sweet
ĠFrancisco
Ġmoves
Ġclarify
Ġcivilization
ĠPB
Ġpro
Ġsprint
Ġteen
Ġoutsiders
roph
Ġoh
Ġjava
Ġsoon
Strange
Ġbeaut
Ġep
Ġlandscape
ĠP
ye
ma
Ġvibrant
ĠPenalty
amorph
ĠTalent
ĠFigures
ĠCh
Ġbegg
Ġadamant
Ġ347
Ġdevelopment
Ġguilty
ĠNext
Ġfins
Ġcreations
action
ĠGu
Ġcraw
Ġblackmail
Ġfrantic
Ġdifference
Ġselected
PRESS
ĠSan
ended
Ġhelicopter
sided
Ġtom
Ġrecommended
unky
ĠTH
ĠPictures
Ġgallery
Ġchuck
Ġlift
ĠHence
Ġvoted
ARC
Ġmuddy
Ġpredicting
Ġpack
Ġbathing
Ġocean
ĠMist
Ġmistake
Ġprojectile
hop
ĠNOR
Ġbacking
Ġmosquitoes
ĠNew
ĠCou
Ġindoor
STER
when
Ġbrightly
Ġzip
Ġindul
ella
Most
Ġ1000
liest
ternally
Ġcommunicate
atted
bad
scape
fit
Ġno
ĠUp
Ġeval
Ġwiden
Ġpanicked
Got
Ġpurse
ady
Ġlikewise
ika
Ġvertical
Ġseller
ĠUnlike
ĠFemin
ĠOscar
arming
Ġobtaining
Ġsuperheroes
Ġtitles
Ġfiles
Ġgirls
Ġbehold
Ġfl
leep
ff
isters
Ġgoofy
Ġtion
Ġbloss
Ġwrink
cious
Ġcarefully
Ġbizarre
Ġinject
Ġprosperous
Ġrole
ĠDelicious
Ġborn
ĠClearly
school
activated
ooked
Ġlarvae
Ġemotionally
Ġprecarious
ĠSci
ĠTur
Ġnerve
Ġsends
Ġcage
Ġbroccoli
ĠAh
Ġmain
Both
Ġcarved
ĠTip
ĠMex
Ġdismantle
Ġmonitoring
ond
Ġbee
Ġfort
keep
Ġreally
one
ĠBubble
Ġerased
ĠTogether
ĠRust
Ġknees
ĠJas
Ġrepay
Ġ101
Ġmo
atisf
Ġbeg
ĠSign
IRT
Ġbundles
O
Ġwiping
ness
Ġbeds
match
change
Ġmeans
Ġbaskets
ĠCheese
Ġevil
Ġchanging
Ġratt
Ġauthorize
Ġconvincing
Ġtides
ĠHouses
Ġwhiff
bt
ĠLOVE
Ġfilling
Ġlovely
OK
Ġtra
ute
Ġclients
Make
based
ii
Ġtomato
Ġincorporate
Ġbamboo
Ġse
Ġ17
Ġadmirable
Ġelegance
Ġplay
Ġmatch
Ġoutright
Ġvacation
Ġval
Ġarrow
Ġstudy
ur
Ġconcern
ried
Ġmeteor
fast
meg
Ġfists
ĠHave
Ġpackages
Ġsimilarities
Ġpasta
Ġclerk
Ġread
Ġdis
between
itors
:
Ġnaughty
Ġprotected
Ġdragon
Ġrepresenting
Ġpaint
Ġoccasions
No
Ġdodging
step
Ġlatt
whelming
Know
size
Ġidentity
Ġunlock
Ġeaves
ĠNoticed
Ġsuperstar
ĠAgreement
Ġresembling
ĠIndeed
Ġdirectly
Ġcomedy
Ġfellows
Ġwaited
ĠApp
ĠTower
cr
ĠJapanese
Ġcush
Ġgrind
ang
apper
ĠLegendary
Ġstabilized
ade
Ġpacking
heat
orious
Ġproblems
even
Ġtrap
phasis
Ġguard
ifications
animous
Ġfle
ĠAbout
ought
Ġat
Ġlived
irth
ĠNec
ĠBlues
iii
Ġcases
ĠDoll
Ġmph
Ġconviction
h
Ġwatch
Ġchampion
ĠPorter
Ġextravagant
Ġreturned
Ġ25
ĠLemon
Ġrage
Ġrural
ĠGirl
IFF
Ġsailing
ugg
Ġbells
ave
Ġancestors
Ġnormally
aking
ĠBeware
Ġjoined
Ġalle
Ġthumb
third
Ġhated
akes
Ġcurrents
Ġmeetings
Ġbooming
weather
bies
ĠView
ĠAmerica
Ġofficer
Ġwallet
ĠCel
Ġcoal
Ġshoot
azy
asured
Ġsat
ĠBirth
Ġgenerous
check
ĠJust
Ġlaughing
For
het
Ġtremendously
Ġmoistur
blue
Ġhurry
ivered
ains
Ġdolphin
Ġspinning
Ġcollective
Ġquantities
ogged
ATING
ĠWisdom
ĠPascal
bling
ĠEd
Rules
Ġmesmer
Ġselection
Early
Only
Ġblogs
Ġlocated
ĠINST
ĠYahoo
oning
HH
ugh
ĠMother
hitting
Ġcheckout
Ġsworn
Sea
ander
reck
Ġiteration
Ġweapon
Ġsongs
Ġnesting
Ġriver
Ġrichest
Ġshut
ĠFreak
Ġlast
Ġincons
whe
Ġmemories
issors
Ġscreen
Ġdistract
Ġoptions
ren
Ġattitudes
ĠBAD
Ġprop
Ġspecifically
Ġkings
ĠBelgium
Ġintern
Ġknife
iant
Ġhad
Ġbu
Ġad
Ġinvestigate
Ġguys
ĠList
times
ĠFast
Ġhighest
Ġtoe
ĠHmm
Ġmagnets
Ġminute
Ġspecially
Ġupstairs
Ġinsanely
elope
Ġmelted
easy
Ġimperfect
Ġsentenced
Ġjunior
Ġhomeowners
vious
ĠFle
Ġdig
Ġleave
att
Ġfive
Ġmun
Ġcirca
Ġremake
Ġextremely
ph
ĠLem
Ġuseful
Ġchopped
ĠLunar
Ġtram
Ġlively
ĠFinally
iddles
ĠSame
Ġrubber
Ġbecomes
strings
Ġvolumes
Ġfeedback
Ġladder
Ġorders
orrow
Ġimages
ĠMercury
Honestly
Ġfiguring
Ġadm
Ġmotivating
Ġloving
Ġah
Ġtyrant
ĠHawaiian
Ġexpose
ĠFREE
Ġearn
Ġentertain
Ġdecor
Ġmoss
Ġsort
Awesome
Ġmarker
listed
Ġordinary
ix
ĠUsed
Ġdebating
ĠUg
Ġ7
Ġdoc
WN
Ġmall
Ġoil
ĠButter
Ġbruising
ador
ĠReset
Ġessentials
nings
Ġovercame
Ġhates
ple
Ġplanting
Ġacquired
Ġscoff
ĠAir
Ġsought
oping
Ġshameful
Ġreading
Ġsacred
uate
Ġmentioning
Ġbonds
Ġworkouts
Ġtriangular
ĠFalling
iw
Ġfinancial
Ġfrenzy
Ġpodium
Ġwallpaper
Ġrelatively
Ġloading
Ġregardless
Ġsprinkle
Ġyelled
Ġant
Ġlight
Ġdescribed
Ġheap
Ġdebts
Ġidea
fried
Ġstaircase
ĠBC
Ġultr
Ġexecute
ket
acks
Ġgenetics
ĠSomewhere
Ġbelly
Ġspoiler
avor
Ġawards
Ġuntold
Ġdot
Ġrefuel
Ġdistracted
Ġwhom
ĠLEG
marks
fledged
Ġslides
Ġpriced
make
ĠPrec
Ġcafeteria
ĠDid
Ġpractice
Ġdied
hard
Ġplants
Ġnotion
ĠSte
Ġflavor
Ġpee
anything
ĠTreat
Ġathletic
fortunately
Ġthan
ĠSuch
Ġfavorites
ĠFired
Ġgas
roller
Ġwaking
Ġrested
ĠSpeak
ides
Ġnewspaper
Ġver
Ġjacket
Ġinsensitive
Ġsteals
ĠDID
oids
brush
Ġreel
UB
esh
Ġstrangers
ĠAppro
Ġten
ines
anty
Ġvisible
Ġski
Ġringing
Ġhalfway
ĠBU
cookie
ilt
Ġcurses
Ġfing
Ġinfluenced
Ġpartying
ove
Ġelsewhere
Ġlots
Ġpepper
ĠFortunately
Ġknight
Ġbedroom
Ġutter
Ġfide
Ġcamouflage
Ġluxurious
Ġsaying
onut
ĠCasual
Ġvalid
Ġestimated
ĠHOR
ĠTrick
Ġeffects
Ġbelief
ĠMot
Ġoven
orial
Ġrace
Time
Ġbusinesses
Ġmism
Ġspr
Ġstare
ĠCit
Ġsampling
Ġsetting
Ġflurry
Ġind
Ġfruitful
Ġspa
Rob
Ġpadd
sorry
ĠWrong
Ġsink
itals
ilage
ITE
Ġsting
Ġgloom
Ġransom
Ġwrapped
Ġfingers
Ġkindred
Ġunderstand
Ġshutter
Ġparenting
ĠStud
Ġgoddess
Ġale
Ġcomplement
Ġbrief
Ġskyline
ĠMap
Ġfifth
Ġyellow
ĠGener
Ġmanages
Ġworking
Ġnailed
Ġrescued
Ġcannibal
Ġappliance
Ġfails
ickets
ĠBRA
ments
ĠIt
Ġgrappling
Ġpurchasing
faces
thirst
ref
Ġdeclaring
Ġeliminates
Ġstriving
INS
Ġclearing
Ġalpha
ĠCalling
Ġmanager
Ġlooks
Ġsolely
90
Ġbringing
main
Ġfortress
Ġdecide
o
ĠGuests
Ġnoses
Ġripe
ĠLIVE
Ġgrou
et
G
ĠSound
Ġsneaking
Ġjudge
ĠSurely
ĠSEE
ret
ENSE
Ġnutrients
Ġunreasonable
ĠTwo
Ġsoaring
Ġbravery
ĠDarling
Ġprotein
Ġordinances
eeee
Ġluxury
EW
ĠWith
Ġabsent
Ġsway
ĠBet
fired
airy
Ġbill
Ġfeelings
Ġadmit
ĠFar
Ġpowered
Ġtraumatic
Ġdirt
ocol
Ġinitial
Ġtechnology
Ġbowling
ĠAgainst
ĠVIS
Ġruler
Ġfungi
nice
Ġsadness
Ur
Ġforth
Ġfearless
unn
Ġsucceeds
ibble
Ġreptiles
Ġawaits
Ġplains
Ġperil
Ġte
Ġteenager
ĠProtection
Ġrat
ĠCookies
Ġbackpack
Ġarriving
Ġpartner
Ġretrieve
imb
Ġcerebral
ĠSam
ĠCas
ĠPrince
ĠRIGHT
ĠHoll
ashion
ĠTIME
Ġforks
ĠEurope
Ġshirt
Ġline
Ġunsatisf
ĠBeauty
Ġnecessities
Ġsales
Ġforg
master
Ġglam
ĠDed
ole
iful
ĠIncredible
umbling
ister
Ġaiming
Ġanatomy
Ġbenefit
ĠStory
Ġfabulous
how
oster
Ġdamaged
Ġunreliable
Ġsquats
rings
ots
ĠPASS
Ġaer
Ġdistractions
ĠUps
ined
Ġbeasts
ĠPunch
Ġarrows
Ġinstructor
Ġassisting
ĠTell
sometimes
Ġspent
Ġgenius
Ġbows
Ġunsc
Ġdelicate
Ġreflect
Ġassumes
ĠDecision
Ġinfamous
Ġenvelop
Ġartist
ĠSupport
ĠRod
winning
Ġbrunch
Ġdisc
Ġpickup
Ġcontests
Ġunch
ĠS
Ġspend
ĠMayor
ĠBroken
Ġtalented
Ġgroups
On
72
Ġworker
idon
Ġel
Ġflavorful
Ġmargin
time
Ġconspicuous
erer
Ġnewfound
Ġdifferences
Ġfueling
Ġworse
Ġlame
Ġinnings
Still
Ġimprovement
aze
ĠSports
made
Ġfemales
Ġspecialize
Ġfix
Did
Ġcarry
Ġsplits
ĠDetective
Ġvanish
Ġannouncer
language
ĠWater
Ġwal
Ġforgotten
heads
ĠCOMM
Ġfire
Ġchildhood
Ġregularly
Ġlime
what
Ġquestion
are
Ġjudging
ardon
Ġwiser
Ġdove
Ġcenterpiece
Ġdemolition
Ġdetermination
hibit
Ġrecognizable
icates
Ġefficient
ĠCheck
iac
Ġgoals
Ġsoftware
player
ĠUS
Ġfestival
Ġhappiest
Ġradically
73
King
day
lightly
ank
Ġreminds
Ġremod
Ġtree
Ġdances
Someone
ĠEve
Ġreef
Ġsi
Ġthreats
Ġreefs
Ġhandmade
Ġspur
Ġfilming
Ġone
Ġtee
Ġfren
ITT
jo
Ġfaux
auc
Ġmere
abb
Ġclearer
Ġriding
Ġdamp
Out
Ġh
Ġdelivers
Ġjealous
Ġvirus
AH
Ġsleeves
Ġsurroundings
ĠMonday
ĠM
ached
ĠLady
ĠLS
Ġatmospheric
Ġspying
ĠOdd
Ġinfused
Ġdesigners
Keep
iring
Ġcommercial
games
ĠSun
ital
Ġgut
Ġshortest
Ġredesigned
ĠBirthday
ĠAny
ves
Ġupscale
Ġespresso
rust
icks
stru
Ġindie
Ġfridge
Ġsneak
ONS
aning
Ġwanting
ĠWah
inging
Ġsystems
Ġbless
eller
Ġsimilarity
washer
Ġbat
Ġtor
Ġjohn
ided
ĠSociety
Ġcollect
Ġlac
Ġpromising
ĠOg
Ġmodification
Ġaside
Ġcourageous
con
ĠRight
Ġgain
orr
Ġwarmed
ĠArt
org
Ġillness
Ġnerves
Ġhero
Ġnecessary
AG
ĠExhibition
Ġspecialty
pole
Ġdazzling
Ġgem
ĠTHR
gey
ĠJapan
Ġversa
Ar
story
Ġthankfully
sels
acan
ologists
Ġroof
Ġseeker
ort
Ġtastes
Ġassessing
Ġconfident
tra
Ġcloud
ving
Ġpamphlet
Ġcomic
Ġink
Ġhunted
ĠOther
Ġtri
Ġcustomers
Ġorcs
Ġschedules
Ġally
abs
ingle
Ġ-
Ġbroke
Ġofferings
Ġgets
ĠSea
Ġwrong
ics
Ġspirits
Ġviolently
Ġconj
Ġlace
Once
Ġrobot
reciation
itty
Ġelevator
ĠErr
Ever
Ġbelieves
Ġdecorations
les
Ġmac
Ġricher
ĠTigers
Ġknockout
Ġunified
sm
Ġforgiving
bin
Ġpinch
Em
AL
Ġfragrance
ĠRec
Ġpouch
vin
Ġbreaths
Ġincorrect
Ġfortunate
ker
anded
let
Ġsplitting
Ġcurved
bearing
filled
Ġexpanded
Ġconcoct
Ġbrowse
Ġprovoke
Ġpeace
Ġobscure
away
research
Ġknocking
backed
paste
ERS
eah
Ġsaved
uring
Ġgroceries
Ġtradition
anna
ratch
Ġbob
Ġideas
Ġhills
Ġinside
Ġes
ĠON
ĠHar
ĠPlans
Ġconsum
Ġplayers
fitting
Ġplayful
ĠNah
Ġstarter
Ġgraded
ĠFA
Ġir
Ġding
sound
Ġobedient
Ġhell
Ġpromises
Ġmatters
Ġcomplaint
pleting
Ġchickens
Well
Ġblend
ĠEVER
clusive
Ġhurting
Ġsurrender
Ġelong
wind
Ġrange
Ġrooms
Pass
Ġbunk
Ġshining
ĠJuly
learn
Fresh
Ġyoungster
animal
Ġapples
Ġversions
ĠLies
ĠBe
Ġperson
toe
ĠPeople
Ġplan
Ġshow
Ġlimiting
ĠQU
Ġidentify
Ġpermit
Ġballpark
87
Ġjam
Being
Ġstays
Ġfabric
ĠAt
Ġstretch
ami
Ġobtain
Ġdr
Ġthinker
ums
Ġseason
ĠChair
Ġchap
Ġamb
Ġcharms
KS
Ġfaster
Ġexisted
ver
Ġfiery
ĠMass
Ġother
Ġknock
heast
Ġparameters
Ġfences
Ġslippery
Ġnorthern
number
ĠCourage
Ġthemselves
condition
Ġgall
Ġactivities
Ġcomplimentary
Ġbulls
Ġjobs
Ġbumped
rom
Ġcyber
Ġobe
Ġedges
lets
Ġsaid
igans
Ġinner
Ġ^
Ġlum
Ġtransparent
shine
ĠLarge
Ġmuscle
Ġ40
ĠEarlier
Ġbuilt
ĠFeel
Ġappointment
HHHH
Ġlur
Ġupdating
bles
ovable
Ġracket
inator
Ġhandled
Ġwaterfall
am
Ġload
sel
enting
Ġcement
Ġopinions
Ġmountain
Ġtyrann
Ġatmosphere
Ġgin
cont
Ġbattling
Ġperform
ighters
Ġstat
friend
UTE
ĠKuh
Ġanyways
Ġtransition
Ġappe
Ġ900
Ġextermin
Ġpacing
ĠPel
can
Ġalter
Ġwhite
Ġmark
Ġshoe
Ġwhatsoever
ĠHere
ĠBridge
Ġhall
Ġspotting
Too
working
ular
ĠSilence
Ġeyebrow
ĠMom
warm
Ġ48
Ġrecent
icles
Ġhusband
ĠHack
Ġ365
Ġprize
Ġcaps
gravity
ivals
Ġhawk
Ġappearance
Ġloose
hest
Ġamazed
arate
Ġgates
Ġreliever
Ġsketch
Ġmamm
Ġvillage
When
ĠSteve
orns
Ġiii
Ġhar
Ġarrived
oppable
Ġrow
requisites
Ġstance
Ġstumble
ĠTie
Ġpellets
Ġdup
hol
rities
Ġavoid
ĠBET
isin
Congratulations
our
Ġalmonds
Ġchoose
7
Ġdi
ĠStars
ĠTour
ĠWait
Ġvows
Ġbroom
ĠDign
Ġhardest
Ġlegendary
Ġstate
Ġaggressive
Ġmic
Ġnutrit
Evil
Ġscarce
Ġdist
Ġstamps
Ġshower
Ġmi
related
Ġdwell
irmed
Ġaura
ĠRem
Ġdemol
proc
ainted
Ġmoved
ĠMountain
ĠCreate
otes
ĠRh
Ġaesthetic
Ġviolin
Ġjoin
ĠNaw
Ġyelling
seat
ĠDonkey
Ġshades
Ġpoor
Ġact
Ġunpredictable
Ġfatigue
Ġstaff
Ġapplications
Ġginger
IV
Ġfeathers
Ġpull
illion
Ġbis
Ġcherish
Ġcomes
Ġfiber
Six
Ġseaf
Ġfingerprints
Ġmanic
Ġobsession
Ġclutter
Ġeducational
Ġgenders
EN
Ġhunting
ĠSqu
Ġplatform
ĠProbably
Ġstab
Ġag
Ġbreak
ĠWhile
sp
Ġoutlaw
atching
Ġmom
Ġnoticed
hey
Ġconclusions
Ġtrustworthy
rete
ĠHu
Ġshout
Ġexecutive
Ġacronym
OWN
Ġflourish
Ġtoward
Ġger
Ġecosystem
anks
Ġhomework
Ġclouds
ĠSoccer
Ġnine
ĠHerb
Ġis
Ġspecialized
ĠGames
Ġfreshwater
Ġscandals
Ġhom
Ġassistant
Ġproviding
25
Ġquarterback
ĠProject
Ġbaking
Ġgravel
Ġeligible
Ġbesides
Ġcontinued
Ġconfirm
Ġmeals
Ġconnect
ui
ĠCool
Ġtropical
Fall
Ġremembered
Ġweekends
Ġstud
ĠQuick
Ġuse
Ġsuspected
smanship
Ġexposed
Ġbrute
Ġconditioned
ĠT
Ġmissing
Ġsoap
Ġsupermarkets
rock
Ġconcerned
Ġcrisp
Ġduct
Ġimp
Ġdramas
Ġoblivious
ĠMine
Ġeyeb
Ġgrasp
31
Ġfreedom
wolf
Ġdizz
ĠHipp
roy
Ġstreams
ĠDo
Ġbreathing
Ġmoniker
Ġforemost
ig
like
hyd
Ġrac
Ġneat
Ġannoyance
Ġwilling
Ġstriking
ĠBIG
Ġap
Ġcleaning
Ġdeadline
Ġpitches
ĠDoors
Ġdare
ĠCan
ĠSeven
Ġgesture
Ġvigorously
Ġowl
Ġregained
Ġsummer
ĠPRO
ĠLl
ĠLeft
we
Ġcir
Ġtoxic
vel
*
Ġexhaustive
Ġprops
iddy
Ġtant
Ġrequired
Adding
Ġn
Ġwedge
will
Ġpoints
Ġpen
Ġspans
BA
Ġreunion
Ġchild
only
ĠAside
ane
course
cha
ĠStamp
Ġtoy
created
Thirty
Ġent
Ġtide
Ġholes
ĠSeas
Ġtracking
Ġadjust
ĠEsther
ĠBrave
ĠFriday
Ġvib
stall
ĠHeart
pri
Ġaddict
Ġkilling
ĠBr
Ġmetal
Ġfolded
Ġpiles
Ġrake
Although
cause
Hmm
Ġknots
Ġdisasters
powder
Ġ20
Ġcold
ĠDVD
Ġform
Ġposition
Ġpipes
leg
Ġpet
ost
Ġsup
Ġball
Ġclown
Ġgritty
Ġcalculations
Ġlasers
Ġsizes
Mr
Ġdraw
Ġwhats
Ġfuzzy
ius
Ġscary
ĠBillion
Ġsplendid
Ġrank
ĠFr
Ġmomentarily
Ġbur
Ġpromptly
Ġbod
What
Ġbre
ighter
Ġdreams
ĠWand
Ġsignify
Ġbass
Ġconfronted
ting
ĠClass
Ġhanging
Ġ175
ĠBack
Ġmonstrous
ĠMansion
Ġ13
nd
Ġpatience
Ġcom
Things
Ġstereo
control
Ġsun
Ġgloves
back
ocus
Ġremoved
Ġmonitor
heres
ĠGL
ĠShel
Ġtemp
utm
ĠHope
ishly
ising
ĠPrivacy
Ġskill
Ġlucky
Ġrecognition
Ġgra
Ġpipe
Ġathleticism
Ġcrack
ĠSelling
Ġcoolest
icket
lost
Ġenough
ĠTV
Ġsoccer
ĠCLE
Ġ33
Ġshooting
Ġhurricane
Ġconc
ĠWho
odynamics
Ġhabits
Ġcelebrated
ĠINT
Ġfalls
Ġclassical
ulous
Ġports
Ġinspirational
Ġcruel
ruff
Ġboxing
telling
5
Ġdisappoint
ped
Ġsimpl
Ġki
ĠDro
Ġhumble
Ġembro
oca
Ġautomatic
Ġneeds
Ġoutburst
Ġsuperhuman
ĠDress
Ġturning
awar
Ġwere
ĠRep
ĠHolding
ĠCro
Ġresort
Ġwr
ĠLi
Ġintent
ign
location
Ġgrease
Ġreward
Ġshrimp
ĠFridays
Ġbrutally
Ġregistering
'
ency
Ġdrunk
for
Ġhonorable
Ġregistered
Ġprimary
ĠN
ying
Ġfaint
ĠOh
Ġglide
8
Ġfin
Ġrewards
Ġirritation
Ġrunway
aud
vation
icious
Ġenjoys
ĠEv
ĠAdds
Ġgoodness
Ġdives
Ġsafeguard
tick
Ġhard
Ġnatural
Ġmixed
Ġfloral
Ġcm
hens
ĠSh
Ġvex
Ġsocks
Ġare
Ġcatching
Beaut
cool
Ġpreach
Ġcutting
Ġu
Ġground
Ġounce
ĠLay
Ġashamed
Ġwives
Ġsimplest
Ġdry
Ġformal
Ġclassics
Ġown
ĠExper
Ġunp
ĠNeg
ĠTrain
erg
Ġslice
Ġchoice
Ġmice
ob
Ġlanguage
Ġeyeing
Ġtake
Ġlately
Ġswayed
ĠSEC
Ġvolunteers
ifer
ancy
ĠGifts
Ġcater
ĠWill
ĠBEFORE
Ġresear
Ġpopping
Ġdigestion
used
tenance
Ġthose
Ġofficially
Ġduty
ĠOb
Ġpiling
Ġmetaphor
Ġmarathon
ĠNet
ĠShape
Ġavalanche
Ġstaggering
Ġcloudy
ĠJack
Ġpoetry
Ġbrakes
Ġhow
Ġglowing
Ġodd
Ġbirthplace
ORT
Ġstrawberry
Ġworms
Ġorganized
Ġamplify
Ġfearful
Ġlicking
Ġcritique
Ġtet
Ġlisted
Ġswe
Ġpriceless
Ġprofessionals
Ġdou
alk
ko
ĠGro
ĠGrowing
worms
ĠVal
Bell
Ġbeginning
ĠMaximum
Ġeternal
Ġhas
Ġscheme
Ġprince
Ġluck
Ġkeeping
becue
Ġdraft
orse
Ġbenches
Ġthemes
vity
Ġicing
Ġrefused
Ġsail
ĠSelect
Ġlull
Ġencourage
ĠCompetitive
uces
Ġquaint
Ġwasting
ANT
Ġwound
Ġwide
Ġfigured
ĠOUT
ĠBust
ĠWA
Ġrandomly
Ġsnug
ĠSupp
Ġfeaturing
izations
Ġcrushed
Ġwent
ĠFlowers
Ġindication
Ġbaths
Ġdetecting
Ġastonished
UU
ĠCalm
Ġcalm
Ġflushed
ĠBroadway
Ġposed
Ġstrengths
Ġbottles
Ġowe
Ġscrub
ĠBash
ĠPhD
Ġlookout
ĠTru
Ġtalent
Ġrate
Ġtitle
Ġparas
Ġclubs
sters
ĠKorea
Ġsound
OUS
ĠWindow
ĠHelp
Ġshopping
ec
Ġoceans
ship
Ġsamples
uf
ils
Ġmentally
Ġdark
Ġtransform
ĠAA
Ġchim
Ġrevolution
Ġwebs
Ġhistorical
nin
Ġacting
wi
ĠTreasure
Ġreferring
Ġpoker
ĠFall
Ġaquarium
imer
Can
Ġthought
Ġlogical
oses
ĠGlass
ĠCompared
ĠGetting
Ġskirt
Ġmuse
Ġseen
Ġachieved
Ġbrim
Ġba
Feel
Ġpoured
Ġsuggesting
iced
ĠRiver
Ġrelevant
Ġready
stros
Ġrecommending
Ġenc
ocado
Ġcheek
Last
pleasant
ĠRoger
ĠFu
Ġthickness
Ġecho
Ġshorts
ĠDE
Ġtimid
Sm
Ġtrading
Ġob
obe
Ġbreeds
itious
Ġforged
Ġinfuri
Ġstructure
Ġrich
Ġrides
Ġoverwrite
coat
iev
Ġwandering
Ġgrade
Ġtail
Ġcontinent
ĠDenmark
Ġintroducing
Ġcompany
Ġblog
Ġrisking
Ġund
ĠGermany
abbling
Ġdoubt
Guy
Ġlibrary
ingham
ĠChapter
Ġdeserved
Ġinterrogation
Ġgun
us
Ġlose
Ġstrain
Ġfork
Ġsummers
ipped
Ġsolemn
Ġclothing
iman
arms
Ġavoided
assy
Ġplane
ĠPiece
ĠPair
ĠDirect
Ġesc
Ġrubbing
Ġlat
Ġbeard
IF
Ġselling
Ġsurvival
Ġinventory
Ġnights
ĠSk
pay
aunting
Ġproficiency
Ġcond
Ġensure
Ġsphere
Ġdisgusting
si
ĠEm
Ġlive
ĠMothers
Ġboils
ating
ong
cu
Ġstamp
Ġsour
Ġmistakes
Ġmaintenance
Ġsmaller
Ġsigh
uer
sticks
Ġmixing
Ġremainder
Ġpostal
immer
Ġimaginary
ĠPow
ips
Ġshort
ify
Ġera
Ġintentionally
Ġfoo
ĠVer
Ġrise
ĠAmazing
Ġtall
Ġbetray
Ġstands
Ġgreatness
Ġtour
Ġfitness
Ġcharm
Ġfoul
Ġprescription
Ġmiles
oes
Ġcomprehend
Ġsmoother
Ġshaping
hen
Bar
Ġdeter
Ġpengu
Ġcolumn
ĠTaj
ango
Ġpomp
Ġorderly
Ġthieves
Ġinfluences
lif
hold
Ġgeneric
ĠAer
Sh
push
putable
Ġab
uttering
Ġexplorers
ĠGR
br
Ġmap
Day
Ġinqu
Ġguiding
Ġsupplies
Ġim
Ġhay
ited
Ġtut
awed
Top
oint
update
Ġstarts
eh
Ġcongratulations
Ġblacklist
ĠWe
OM
Ġrealized
Ġcircumstances
Ġbuyer
Ġregret
geon
Ġrub
aces
ĠEssential
avin
Ġslot
bug
service
Ġfile
Ġvaguely
Ġterribly
BY
Ġledge
Ġpitching
ĠExcept
Ġlizard
ĠInfo
ĠAbsolute
ĠIreland
Ġtrout
ota
ANCE
gging
Ġtoast
ĠHead
ced
ĠShar
Ġdowntime
Ġenticing
ĠFemales
www
Ġpattern
plings
Ġfat
ĠHoney
Ġbluff
Ġmint
gu
umble
Ġcra
Ġtransplant
Ġdent
Ġmir
Ġpublished
ĠMorning
today
Ġobvious
ivers
ĠFol
ĠSTR
Ġpitchers
wal
Ġhiber
ww
Ġcosting
Ġrecipes
Ġwitness
65
ZZ
Ġseated
there
ors
Ġadvertisement
Ġprojects
ened
Ġmouth
Ġtrade
ĠMN
ĠFamous
depth
Ġprotects
Ġnicer
Ġrotation
Ġpas
Ġendorsement
Ġwinters
Ġspreads
ĠShak
True
Ġyoungest
Ġsheet
Ġprovide
Ġgrabbing
Ġhandy
Ġperfectly
Ġnab
Ġexcruciating
Ġstone
wn
Ġpatched
ching
baby
Ġslips
Ġbenevolent
hire
Here
Ġhigher
Ġannouncements
igators
pered
ĠRole
poses
ĠHarriet
Ġapproach
Ġchance
Ġshakes
rones
Ġadvertisements
Yep
Ġpromise
Ġwhims
Ġcapsules
Ġmoons
Ġbackbone
uish
ĠSorry
Ġskipped
Ġlay
castle
Ġinvisible
omer
QU
bow
Ġsensory
Ġcommitting
ction
Ġstains
aves
Ġhosted
Ġfare
ĠAxe
grass
Ġprevious
ĠEmpty
ĠWeekly
Ġdifferently
ĠEnough
Ġqueens
iatures
Ġaffordable
Ġfrying
Ġraspberry
Ġpurposes
Ġhiding
ĠPles
Ġfurnish
Ġgot
Ġslow
Ġinsightful
der
Ġdisaster
ĠRead
meter
ĠRoses
oso
state
ĠSave
ween
Ġspectrum
Ġscenery
Ġcam
Ġwar
Ġseemed
Ġdur
ĠHEAD
Ġthinking
Ġclosely
Ġpeak
Ġjudgment
Then
Ġweak
ĠGe
Ġfarmers
Ġcart
ĠSD
eny
Ġbeginner
Ġaccusation
Ġqualified
Ġspecializes
ration
Ġmilitia
ĠBurning
Ġcrowd
Ġwhole
yy
uster
Ġfootsteps
ĠPRE
ĠEar
Ġpuppies
ĠWrite
Ġwo
ĠMY
Ġsentient
Ġdocument
Ġdeclared
Ġsleek
Ġmaterial
Ġman
ĠSu
Ġceremonies
ĠLeave
Ġloser
ctions
Call
ĠSerious
ĠKILL
IL
ĠWrest
Ġoverhaul
une
ĠPI
Ġbed
Ġawesome
Ġtails
Ġhighly
Ġhi
ĠOn
Ġseparate
Ġdistraught
ivid
Ġtan
itters
Ġaged
Ġinspector
Ġconnecting
pering
Ġtongue
Ġlakes
Ġplaza
Ġstalking
Ġshame
ey
pull
iple
Ġgirl
OND
ĠAdvice
Ġterrified
Ġsucking
Ġdiscuss
grown
Ġnos
ĠENT
Ġmales
ĠSS
Ġfried
Ġsuffer
ed
ikes
colored
ĠPet
vey
Ġlaz
Ġproducts
Ġmonkey
ĠBudd
ems
Ġhumans
Welcome
ĠMov
ĠCaptain
ishes
Ġyen
Ġpurple
Ġfeatured
Ġmusicians
Ġapproving
ĠPlants
abol
Ġburner
Ġlifes
Ġinch
Ġ700
Ġcreepy
had
ĠSaber
Ġtraded
oving
Ġfrogs
Ġcelebrity
footed
Ġbecoming
ĠSimple
ĠCook
Ġgym
Ġconfidentiality
Ġstruggling
ĠHad
Ġjewel
Ġheight
Ġpenalties
Ġquarterly
Ġdefinitions
A
Ġconcept
hy
Ġdepressed
Originally
ĠCru
Ġformerly
Ġexperienced
ISH
ios
Ġstake
ĠCL
antly
Ġartifact
ĠCreature
IM
ĠGul
Ġcrosses
anth
worm
ĠFurn
pan
keepers
Ġlesser
Ġprojecting
Ġinfluence
Value
Ġvisionary
Ġorthodox
Ġinformation
stay
Ġremote
Ġming
ĠRelease
ĠGuys
Ġcharred
Ġsur
Ġrap
OV
Ġtirelessly
ĠTop
Ġtogether
Ġchasing
Ġexclusive
Ġdesperate
Ġexpressive
Ġarsenal
Ġresponsibilities
asses
Ġearly
arge
Ġwhistle
Ġdrip
Ġextinction
Ġcalcium
Ġcolors
Ġants
Ġboun
Ġbrown
Ġ1880
ĠFlam
Ġtrades
autical
..
Ġmanned
ĠBottle
Ġankles
ĠSo
Ġhonest
personal
Ġsid
ĠAgain
Ġresur
feel
ue
Ġrisks
Ġnaive
Ġceases
yu
Blue
Ġrings
ĠBright
iah
acas
Ġtroubled
Ġlung
Ġweaker
kins
ci
Ġnut
Ġhometown
INE
agon
Ġk
Ġconduct
Ġlabs
Ġemb
Ġheavenly
Ġie
Ġcohesive
ivated
Ġhandle
Ġpitcher
ovies
Ġidentities
acles
some
utz
kids
Ġskew
Ġdestinations
Ġthighs
ĠOur
Ġcooking
Ġmanners
DA
Ġmanaged
being
ny
Ġeffortlessly
ĠDES
Ġtaking
SC
Ġsoy
etchup
Ġfest
Ġinsane
Ġswapping
long
Ġrescuing
ung
Ġvisitor
Happy
Ġfrightening
Ġ18
Ġstuck
Ġlimitations
Ġcramped
Ġins
ĠThai
Ġskip
Ġhouse
Ġquestions
Ġhospitality
Ġbackwards
beh
eating
Ġexpecting
efully
Ġhunter
quin
ie
Ġoperations
ijn
ĠIN
vern
Ġclut
ancer
Ġuneasy
Ġbarg
cooked
Like
Ġpitfalls
Ġ=
Ġthis
m
Ġcrit
Ġjourney
ula
ĠWAS
yard
ĠThe
Ġspark
ivalry
Ġmajor
ories
Ġmug
Ġnumerous
Ġresembles
cel
Ġboarding
Ġbooths
Ġcad
ĠChocolate
Ġindulge
orrect
Ġbounce
Ġspikes
ere
Ġbuild
Ġninja
ĠParent
Ġarmor
Ġdriver
saw
Ġkeyboard
Ġshred
ĠWORK
Ġminds
Ġitch
Ġalways
Ġtimed
Ġsuit
ĠSheep
ĠBone
Ġmustard
Ġtips
ĠBattle
Ġsuccessful
ĠThough
Ġensemble
Ġmemo
Ġbuilding
Ġtraits
Ġawful
Mayor
Ġseries
Ġhack
Sty
Ġtraditional
aved
kid
Ġeverywhere
Ġgame
ibles
Ġslur
Ġworkout
Ġsum
Ġut
Ġgrape
Ġtool
Ġspice
Ġhopping
Ġsneaky
Ġtruck
Ġserving
Care
ĠBut
Ġcombined
ĠNEVER
Ġstartled
isions
ĠYoung
ĠIQ
izer
Ġcruise
19
Ġ4
Ġpur
Ġparticipation
Ġmating
Ref
ĠAround
ĠOrn
Ġhesitant
29
ICH
Ġgown
Cho
Ġattackers
Ġopponent
ller
Ġtactic
Ġconfuse
Ġgrapes
ĠStealth
Ġcelebrate
ifies
Ġunderestimate
ĠOlder
ĠDi
Ġdate
ĠMaid
Ġphones
ĠPoll
Ġbirthday
Ġpill
Ġpurely
Ġfond
Ġsow
oor
Ġemitted
Ġinformational
Ġtracker
Ġlist
Ġemployees
Ġquieter
ailing
Ġbasin
Ġcrafted
ĠDiamond
Ġeloqu
Ġpre
okes
Ġcheaper
Ġchampionships
Ġstreak
Ġburn
Ġrevealing
Ġcho
Ġbuildings
Ġthin
Ġchange
ĠMay
Ġtells
Ġsouthwest
Ġcomics
Ġapply
ĠRats
't
Ġtalents
da
Really
ELF
Ġalthough
Ġpermits
Ġbuilds
Ġhen
OU
AAAA
Ġic
Ġforthcoming
work
Ġbullying
Ġabsurd
und
berries
Ġdinosaurs
MAL
Ġnoticeably
Ġsecurity
Ġorganizer
anger
Ġimproves
Ġencouraged
Ġbrighter
Ġpose
Ġtickets
Ġsk
Ġuphill
ĠPerhaps
Ġalgae
lat
Ġphysically
Ġmomentum
Ġshove
Ġhaun
Ġconsole
ĠDil
ĠCut
encing
Ġreliable
Ġsomew
Ġsuspicious
Ġhorses
Ġeater
Ġside
Ġbragging
ĠDance
Ġpenalty
EEEE
Ġmisery
shape
Ġexaggeration
Ġdoctor
Ġmodeled
Ġwhipping
Ġcleaner
Ġsheltered
Ġblending
ĠExplore
Ġpiece
Ġbatter
ĠPrincess
vest
iser
Ġride
Ġdeath
antics
ĠWITHOUT
Ġcounts
Ġguilt
ull
Ġsequels
Ġcoffee
uality
Ġrestraint
ĠPle
Ġspilled
pa
Ġwould
ĠTues
mentation
Ġfigures
Cool
Ġcharity
ĠWE
atin
Ġsprawling
Ġfog
Ġgarage
Ġreminiscent
Ġsusceptible
Ġsweets
ĠHappiness
Ġissues
Ġblinking
Ġmess
Ġdollar
Ġmusic
Ġmarks
ĠFAR
Ġneighbor
entious
Ġhatched
ĠSignature
Ġcake
whatever
ĠTight
Ġamong
hots
lon
Ġfaked
Ġsubdued
earth
ensive
Ġdj
Ġgardens
Ġpushing
Ġargue
Ġfigure
Ġcard
ĠUN
Ġoper
ĠStudies
inches
Ġlongevity
omed
Ġrelaxed
anned
ĠTee
ĠLucky
berg
Ġbroaden
Ġexagger
Ġgoods
Ġcomplexion
ĠTri
Ġgap
Ġextreme
Ġultimately
Ġdirectors
Sometimes
rules
pr
Ġbanging
sty
Ġfrog
Ġasked
ĠOpening
Ġsociety
ĠExpress
Ġfrustrations
Ġvocal
ĠNovember
Of
Ġtough
Ġtwisting
Ġswear
ĠYear
Ġrays
Ġclock
ĠBun
teen
Ġrefined
Ġglasses
Ġintimidated
Ġore
ĠSell
ologist
ECT
Ġacquainted
lights
Born
Ġmoments
Ġnefarious
Ġmonths
Ġarea
Ġroast
Ġfigur
ĠBeautiful
abul
ĠReaction
ĠSalt
ĠSteel
Ġcop
Ġnood
Ġlackluster
Ġpetty
ĠHAR
Ġscarf
Ġspawn
degree
Ġmovies
Ġya
Ġreach
Supp
Ġ90
Ġdisappears
Ġbugs
Ġsh
Ġdecree
Ġfestivities
Ġwary
illa
Ġhave
ĠKi
breaker
Ġpossessions
series
Ġexamine
ĠSE
itiveness
Ġbind
Ġbottom
Ġjustice
Ġnostalgia
kward
AAA
Ġnever
ĠAfter
Taking
Ġher
ĠEither
ken
Ġawait
Ġestablish
ĠYo
Ġgarlic
Ġdots
ĠFix
ĠNEW
lot
Ġcell
Ġand
ĠArctic
ĠRom
umps
Ġbeautiful
Ġsuspicion
Ġplush
Ġabsolutely
Ġbecause
Ġphysique
urt
Ġselectively
ĠPrize
Ġnovice
Ġfisherman
Ġcred
ĠScorpion
Ġfight
bean
Home
Ġdoor
ĠBuy
Ġtravels
Ġchunks
Ġhopeless
Ġweigh
ĠEaster
mom
ĠUFOs
iting
ĠBas
ĠNom
Ġfluct
Ġfinding
ĠBath
Ġmeasured
ĠCraft
Ġseven
awn
Ġhoping
itive
hell
Ġapplicants
Ġdisagree
ipes
ĠAlmost
antis
ĠMean
ithering
Ġsquad
Ġdelivery
Ġcreep
Ġmessenger
Ġvictim
Ġliterally
String
ber
anged
Ġ~
Ġgarbage
ourney
Ġoff
ĠShall
ĠEh
ĠOutdoor
Ġst
Ġprob
Ġaffected
ike
Tr
Ġsite
Ġbearing
Ġextinct
Ġrelieved
Ġsupposed
ĠDa
Ġseams
Ġchick
Rum
Ġgood
Ġsolo
ĠWorks
Ġsafety
Ġexplore
Ġi
oly
Ġhip
hall
cod
Look
ĠMad
asure
ocked
Ġstrong
Ġbus
Ġplug
Ġrelative
Ġstatue
Ġequations
ĠTimber
Ġlights
ĠPink
Ġsuperpower
Ġweighed
folk
Ġridiculously
Ġbully
Ġstopp
Ġdunk
ĠWal
ĠSuppose
Ġswept
Ġrust
Ġextend
brace
Ġnetwork
ĠPav
Ġorganic
Ġlikes
ĠFish
Ġbacteria
Ġaddition
ĠThem
Ġyesterday
Ġask
Ġupstream
ĠPretty
Ġsam
Ġquo
izzy
eg
Ġsubmarine
Ġph
tub
ĠJoin
icion
ask
Ġbegging
Ġlifestyle
Ġvault
free
cular
owner
Ġls
ooth
Ġaccent
Ġnotwithstanding
aii
mate
Ġabandoned
,
Ġrepresentatives
fall
Ġstronger
second
Ġhealth
etry
Ġdisposition
mers
nesia
Ġideally
stem
ĠSOME
qu
Ġcents
Ġself
Ġquestionable
Ġchased
ĠDebt
ĠScore
Ġheels
Ġempty
ile
Ġinspiring
ĠWATCH
Ġexplosions
zer
wallet
ĠLater
ĠAce
Ġchase
Ġmerely
Ġtendencies
ĠSpecific
light
ueless
Ġjokes
ĠFlag
Ġchores
OTE
Go
Ġhelpers
Ġstyles
ĠFavorite
ĠUnknown
ĠTODAY
Little
Ġconcentrating
Ġtakes
Ġcrawl
Ġcatalog
huge
alg
uggle
ĠActivities
Ġsalesman
prot
ĠAN
ĠThursday
ĠAdv
Party
Ġappra
quality
Ġsense
Ġstove
Ġsuspect
Ġtracts
Ġum
Ġconsider
ĠFig
Ġincomplete
OUT
ĠLima
Ġbruises
Ġclumsy
Ġdownloading
uc
Ġjerk
Ġyourselves
Ġmeth
Ġresponsible
Ġvan
Ġsince
Ġactively
ust
min
Ġsaliva
Ġbundle
Ġm
Ġfear
utter
Ġcurves
Ġcloset
itation
Ġinterrupt
ĠStudent
Could
atch
ĠHumph
case
Ġdiscovering
Ġtackle
Ġfolk
Ġropes
Ġfed
emaker
Ġconvert
price
Ġshuffle
fters
Ġfrivol
Ġdoes
AT
maker
Ġpatches
builder
Ġlinked
Ġevaluating
Ġost
athe
Ġmistaken
Ġmag
Ġteaspoons
Ġappreciation
Ġclose
Ġarche
ĠBundle
Ġthat
Ġwinding
sharing
ĠKing
utt
Ġimpress
ĠBread
Ġfeature
Ġsear
inking
quez
Ġbest
estyle
ĠAPR
Ġairplane
lad
Ġruns
Ġswords
ĠPH
Ġig
TH
ĠKids
Ġrocket
ĠConversely
Ġones
ocial
Ġwavelength
ĠIT
soon
bie
Ġed
Ġsequence
Ġeasier
Ġaxe
Ġscissors
etti
Ġrequiring
Ġfour
Ġmole
ĠSir
Ġoutper
Ġcoaster
ĠAngry
Ġcouch
Ġquizz
ird
ands
ĠFIN
Ġhidden
Ġadult
Ġwait
oots
lic
Ġcunning
Ġinspection
oll
Ġburning
ĠManagement
Ġbehaved
Ġhumid
Ġreplica
adies
Ġasleep
Ġdisgrace
Ġvibrations
bul
Ġproof
oped
Ġpotatoes
olve
d
Ġjo
Ġoutstanding
usk
Ġrushed
ĠPersonally
weed
ounded
ĠMOV
Ġauction
Ġgift
Ġsooner
leader
Z
acco
THING
ĠAu
Ġgears
Ġmaximize
ĠNEXT
]
Ġbatting
Ġcompensate
ree
ded
Ġcash
Ġbearer
Ġassociate
Though
Ġplacing
ĠBooks
Ġmini
very
Ġcustomary
ach
Ġstable
Ġwarming
ibility
Ġnic
ĠHonestly
Ġintimidating
ĠPlenty
ĠSty
Ġguardians
Ġcontacted
Ġpopulations
lf
appers
Ġbegins
Ġconditions
Hell
Comb
ĠTrue
ĠOccasionally
He
Ġexactly
Ġp
Ġflip
Ġguidance
creat
ĠHearing
Ġvanishing
Ġphilosophical
Ġsparks
inating
ĠGet
Ġconceal
ĠMars
ĠHoliday
favorite
Ġsecret
Ġsorts
ĠSomeone
Ġhappier
Ġacid
Ġblazing
Ġair
Ġpoetic
Ġcharitable
Ġstature
Ġbree
anging
fee
ĠCould
Ġoperating
Ġcovered
acy
Ġlayout
ties
acked
ĠFoot
ĠPush
Ġstorms
Ġeras
Ġadvertise
Ġattracting
Ġsprayed
ĠChess
Ġdonate
Ġvenues
ĠOffense
ĠPick
Ġteeth
ĠSoph
Ġduel
Ġsprinkled
Ġrespectable
ĠSleeping
amping
Ġinstruments
Ġcalculating
Ġsomewhat
olt
Ġpersistence
fter
ĠLatin
Ġrely
Ġpy
Ġpreparations
Ġfill
ĠHA
Ġpron
ĠGau
OUNT
Ġembark
Enough
ordered
Ġmist
Ġarena
Ġessays
Ġfallen
Ready
ĠLegend
Ġrats
Ġaway
Ġbillboard
Ġhips
Ġfindings
Ġstayed
umped
Ġdetermined
Ġgon
spirit
ĠFried
Ġcomposing
Ġnotch
Ġgroom
Ġgladly
Techn
ay
au
Ġsupporting
Ġpant
ward
Ġmutual
Ġfox
gl
chief
Ġplac
Ġalbum
Ġattraction
Club
INK
HS
Ġsurreal
heard
Ġcentury
tech
ĠTwenty
Ġshift
Ġcoats
worker
This
Ġmath
Ġanime
Ġtreated
acking
Ġcomedic
ivering
Ġminutes
Ġbegan
Ġmassage
Ġrules
icating
Ġnod
Half
Ġprec
Ġups
ĠKee
essed
ifles
Ġweighs
ampoo
Ġpsychological
ĠSmooth
Ġtones
ĠNorth
Ġtrace
Ġendeavors
Ġmum
ĠChina
Ġfra
cks
Ġmeasuring
ĠSmall
Ġtrips
Ġgod
Ġirresponsible
rating
Ġnonetheless
ouch
Ġtoilet
Ġpetitions
ends
Ġstates
Ġreunited
Ġfiner
Ġtoughness
Ġpromised
Ġmachine
ĠBad
ĠTRUE
ĠSaturn
ĠGarden
ĠDEL
Ġsymbols
Ġpackage
Ġapplication
Ġinferior
Ġroomm
Ġleak
Ġtriple
Rock
Ġtargeting
Ġjour
pur
ooo
ĠPric
Ġslim
Ġstudio
ĠClean
Ġjaw
apple
ĠWass
Ġtwin
Ġexamining
Ġmailbox
Ġsecond
Ġtender
ster
Ġwelcome
Ġridden
Ġsor
Ġwardrobe
elling
Ġequal
Ġspecifics
Ġharrowing
Ġimagined
Ġpunct
Ġconfid
Ġdiscovery
ading
Ġcartoons
ppe
Ġprotection
Ġexperience
mons
Ġmoderation
Ġlegs
Ġlocations
Ġhelped
Ġnegotiate
Ġlover
ĠPumpkin
ĠChill
Ġexceptionally
Ġfearsome
Ġfactors
fl
oss
Ġdow
Ġcome
Ġreplacement
mber
uke
protected
spring
not
Ġours
Ġvit
Ps
Ġcontestants
Ġdying
ĠUncle
Ġthorn
Ġtomorrow
Ġbreeding
Ġspeed
Ġselves
appiness
tons
ck
Ġflown
ĠFUN
Ġedge
usp
ĠProfessional
ĠNetherlands
Ġaudio
Ġfool
Ġnons
Ġmodern
ĠBeing
ĠFashion
Ġfright
Ġracing
ĠSpeaking
ĠEverything
uses
rum
ĠSp
Ġcompetitors
Ġspace
YOU
Ġfilthy
Ġresp
Ġadmired
ĠShowdown
Ġoperator
Ġathletics
Ġage
Ġbehavior
Football
present
Ġcod
ulously
Ġafter
Ġmotto
Ġgoodies
olly
ĠCalled
Ġinjury
oling
ĠJump
Ġpot
Ġtolerate
eat
Ġprivileges
view
Ġmistakenly
Ġchanges
Ġstages
ine
Ġexpect
ĠUh
Ġborrower
isky
Ġsto
Ġbanana
Ġmovement
Ġtar
ox
Ġmus
ĠAlso
Ġcomputers
See
ĠEW
Ġreplace
Ġelectronics
Ġmelts
Uh
Ġwre
Ġpsychology
Ġexist
Ġprobably
Ġplace
cle
cial
Ġtur
Ġsized
Ġliking
ECA
Ġrevolutionary
ten
ĠLimit
Ġregular
ASED
ĠER
pid
ĠWeather
Ġ28
%
Ġstra
Ġestablishment
abl
ace
Ġtow
elled
aunted
Ġthrough
Ġranked
ĠD
Ġworkings
Ġsubtract
Ġinches
Ġsponge
Ġprow
rats
Ġled
ĠNevertheless
Ġpronounced
Ġbeware
Ġ999
ĠRegistration
Ġavid
jong
Ġbombed
ĠCooking
ĠBald
Ġamphib
Ġmessages
Nothing
Ġearthquake
Ġmask
Ġaunt
Ġwildfire
Ġfee
cking
Ag
Ġspoken
Ġbrushes
Ġadvent
Ġleague
must
Ġbusy
Ġhabit
oho
PR
Ġhopeful
Ġlava
Ġmeasure
ged
ĠBar
Ġmutations
s
ĠPLAY
amac
I
Ġcomprehensive
Ġflashlight
Ġcelebrates
urus
ritz
Ġgigg
Ġfr
ĠWHAT
got
ĠSeasons
Ġlying
Ġwashed
Ġphotographic
Ġcontempl
Ġpackaged
Ġferocious
Ġlecturer
Ġamateur
Ġcurrent
pp
ails
Ġmassive
ICE
Ġreturn
ĠSTART
ĠMcGee
Ġrisky
Ġaliens
riched
Ġbuttons
Ġanxious
orate
ĠNOT
adin
Ġclimate
Ġbehind
Ġspeculation
Ġthroughout
ĠJanuary
Ġripping
ĠGra
rin
Ġcorrectly
Ġunveiling
Ġblasting
eyes
Ġhelping
aan
Ġapprehens
ns
Ġstripes
Ġbans
Ġcaves
Ġchain
Ġarticle
ĠImm
ĠMilo
Ġsmashing
Ġcourage
Ġwriting
ays
Ġjoints
flying
Ġmedals
Ġunmanned
come
rem
Age
Ġdepend
Ġsurge
Ġmarking
Ġfur
fine
Ġrests
Ġdancing
eless
break
Ġnaked
Ġtruly
Ġcarried
ĠSongs
Ġtrop
Ġunbelievable
Ġpatrols
want
Ġpeppers
Ġtrivial
Ġnoble
Ġgrip
Ġcitizens
Ġsporting
stock
Ġtrek
Ġfacial
ĠDark
block
Ġrejuven
ĠKeep
ĠTurning
Ġrug
ĠEas
Ġshaving
style
ĠRelations
Ġde
contact
Ġinstantly
Ġimmigration
Ġonion
ĠCopy
Ġdreadful
Ġsister
Ġholder
Ġaccused
Ġotherwise
za
Ġbirds
Ġarm
Ġmythical
Ġcreating
Ġahead
Ġcommitment
ĠDIS
buff
Ġexcited
hair
Ġinvitations
Ġprofound
Ġintending
Ġrestoration
Ġfancy
Ġrefreshing
Ġkeep
cloth
Ġthw
Ġboasting
Ġdrinking
Ġreckless
Ġaccompl
Ġj
aro
Ġhours
Ġboots
ĠCanada
Ġpersonality
Ġpositions
Ġposes
Ġstart
ft
Ġpatrol
Ġhonesty
Ġdeals
go
Ġfollowed
getting
Ġfarm
Ġnotes
Ġslogan
Ġdaddy
Ġoffense
cats
thought
ice
ense
Ġshady
ĠDemand
Ġopenly
Ġpursuing
AME
Ġenter
izons
ĠAmerican
rant
UN
Ġport
ĠStarted
Ġmammoth
onomic
Ġattaching
Ġopposite
Ġfocal
Ġcovering
eker
Ġsecrets
Ġcasting
Ġdrying
ĠDepartment
Ġstrut
Ġphilosophy
Ġcat
Recently
Ġflooding
Ġunnecessary
Over
Ġgratitude
Ġintact
ĠAU
Ġ14
Ġoptimism
south
Ġcover
ettle
orting
Ġsacrifice
post
Ġnew
uggage
Ġbudding
Ġcharacteristic
ĠInitiative
comed
Ġspoke
Ġshimmer
Ġsom
Ġautomated
Ġexposure
Ġvacuum
ede
Ġna
Ġdotted
ĠPicture
ĠJoy
ĠPs
Ġfuzz
Ġboot
Ġcout
Ġseeking
much
Ġthigh
Ġcreamy
Ġprized
which
Ġinsanity
Ġinstructional
Ġswing
Long
Ġmountains
Ġactual
Ġcon
ĠGrande
Ġimpossible
Ġnarrow
Ġconfirms
Ġunsure
rit
oles
Ġdoing
Ġmaster
Yeah
doing
Ġminister
ALE
Ġcompared
Ġawarded
Ġinh
Ġcasts
ae
Ġachieve
oration
ele
itably
Ġling
Ġwrestler
iding
done
Ġconversation
Ġponds
Ġphotos
Ġpedest
Ġinjured
Find
Ġearliest
Ġ190
Ġabundance
Ġsource
.
Ġformer
Ġspecials
Ġthrows
Ġsolitude
amed
Inside
ĠSP
Ġsnacks
athetic
Ġpage
Ġovertime
Ġexhibits
Ġscratch
Ġchamber
Ġexperimenting
Ġdiv
Ġrushes
Ġouter
Ġencourages
Ġthriving
bite
ona
Ġdecline
angers
ildo
Ġguy
woman
ĠFace
ĠUltimately
recogn
Ġspotted
Ġaest
inations
Ġdisband
ĠAnn
ĠFound
Do
Ġrecognized
Ġweed
data
Ġenergy
ĠHaving
umbo
ĠDelete
W
ĠWomen
ĠVan
ĠRoyal
new
Ġdaughters
Ġuniquely
outed
Ġsmall
ĠEveryday
ies
ĠOff
Ġheartbreaking
Ġrogue
Ġforces
Ġfared
Ġreign
ilies
Ġwrestling
ĠCollection
Ġforms
Ġinternational
Ġsymbolic
oned
Ġredeem
ĠUnderstand
Ġinvention
Ġsometime
Ġeasy
Ġnost
Ġregional
ĠEvil
itting
othy
Ġtopp
Ġname
ĠMight
Ġdon
ĠFocus
Ġrains
Let
Ġhotel
Hard
Ġpads
Ġbudget
Ġbreathed
Ġmerch
ĠSF
Ġconvenient
Ġwhoever
Ġrates
Ġremind
Ġvanished
ĠThought
Ġmidst
Ġexchanging
Ġtheater
Ġappearances
Today
Ġcarn
rical
Ġcontemplating
ĠMes
ĠSing
ĠSof
Ġbitterness
Ven
bed
Ġword
Ġtricky
Ġchilling
Ġpraised
rils
Ġretard
Ġwet
Ġroller
ath
Ġcode
Ġmonopol
Ġprecipitation
Ġdoctors
Ġwestern
Ġinstances
Ġgust
Snow
Ġcyl
Ġwonderful
painted
acho
ĠHawaii
Ġpraises
Ġsmashed
Ġrefrigerator
ĠLuckily
Ġpays
ards
Ġbail
ĠPenn
Ġhyd
Ġnewcomer
Ġunaware
off
Ġend
Ġresource
otion
ĠAd
Ġen
ĠDin
Ġedit
tery
Ġexcellent
Ġbud
Ġcontrols
Ġconcentrate
Tonight
ĠInt
Ġnest
Ġchilly
ĠTHAT
ĠBreat
event
Ġscared
ĠSpy
MER
Ġshrouded
Ġcent
Ġglossy
Ġbalancing
Ġimitate
Ġcertain
ĠStrong
Ġmetallic
Ġeffort
Ġinfo
cur
Ġcase
Ġfirmly
idences
Ġcompass
Ġindirectly
uding
1
Ġsalad
IG
Ġrelates
Ġoutskirts
Ġinvasion
ELY
Ġspouse
Ġbatteries
Ġslows
antasy
Ġscene
ĠIgnore
ĠAim
ĠINC
Ġgames
was
Ġkick
ĠToo
inn
Ġuniform
ĠThurs
Ġgallons
iba
Ġhug
Ġslope
ĠGreen
agging
ĠContest
ully
Ġhaz
Ġindebted
Ġchang
Ġ1888
F
Ġborrowed
Ġmaturity
Ġknowledgeable
Ġperforming
ĠDoc
turn
Ġoverboard
Ġequally
Ġstrateg
Ġhopefully
ĠHats
Ġsiblings
Ġcreeping
Ġshri
Ġcreatures
Ġshoots
ĠImportant
Ġthanks
jack
Ġunintentional
este
Ġlinking
dog
special
Ġintegrity
Ġ39
Ġmarvel
Ġanatomical
Ġrooting
ĠDead
upload
ĠSoft
Ġshots
Ġspells
WA
Ġlav
Ġobserve
track
Ġponder
atoes
Ġfist
Ġbulky
Ġguardian
ectar
ĠBrand
packed
st
ul
ive
ĠOpportunity
Ġgymn
ĠMike
Ġplot
Ġfrequently
Ġugly
Ġsoft
Was
Ġwonder
ĠTe
ĠPeriod
Ġmant
dec
Ġaffect
Ġdab
Ġclosing
Ġleash
ĠLift
udge
Ġambush
Ġspin
name
Ġbladder
aid
Tea
ary
ĠTrying
Ġslices
ĠTypical
ĠInterior
Ġbusiness
Ġroutines
ONES
Ġfacilities
Ġhole
ĠHast
Ġmystery
oken
Ġstun
Ġminiature
Ġranking
Ġexperiencing
url
Ġperformances
ĠSM
Ġmoney
Ġtire
Ġpraising
uling
've
Ġweighing
Ġaudition
quit
ĠPlayed
Ġbackstage
Ġsex
Ġbroker
ackers
astic
umpy
Ġnovel
fun
CR
Ġconst
Ġsurplus
improve
Ġscr
ICK
ĠMaybe
Ġsoak
Ġlantern
ĠGrav
ĠThere
Ġcamera
Ġterrestrial
Ġscheduled
ĠIndie
Ġdetect
ĠCAL
lov
ĠBold
ĠPrel
Ġartists
Ġexploded
Ġdesires
ract
ĠSingapore
Ġpressed
Ġcitrus
Ġrarely
ĠGuarant
aching
Ġcities
knit
ĠMa
Ġburst
Ġx
blooded
Ġdiplomatic
ĠInput
Ġexpress
c
ĠAND
Ġgrounded
known
Ġexperiments
Ġbrewing
Ġsocial
ĠTHANK
ĠBah
Ġinspires
Ġkindly
ME
Re
Ġelection
ĠOK
Ġtally
Ġchoosing
ĠHedge
Ġer
Ġvolume
Ġresumed
Ġliving
Ġcalves
Ġformed
ĠEVEN
Ġwillpower
Pract
abies
ĠEgypt
Ġoverpower
ĠDepending
Ġhelm
Ġeat
ize
Ġtowels
Ġchosen
ĠPassion
Ca
ams
Ġattempt
Ġshatter
century
Ġbear
Ġscrape
Ġartistic
Ġtenth
ĠMeanwhile
Ġsnack
Ġold
Ġsport
Ġresearching
ift
Ġbooks
Ġfer
Ġstairs
ĠClaus
Ġeducated
ĠBasic
ĠTa
Ġboring
Ġdin
ĠSto
Ġreplay
Ġrenew
Ġlocal
ĠFreddy
ĠScrib
Ġpedal
Ġmold
Ġgave
Ġrevealed
Ġanimal
ĠNews
Ġclaim
rs
Ġpunch
ĠSK
ĠComb
Ġlayer
Ġrecognize
Ġbecame
Ġtot
ĠOrange
Ġtruth
ĠPre
ĠRabb
wise
Ġrestart
Ġquest
ard
Ġsilhouette
Ġsil
Ġdimension
Ġcity
ĠFlo
Ġcrammed
ĠBur
Tur
Ġinteracting
ĠProgress
Ġbreat
ĠBugs
Ġveggies
Ġnote
Ġstudied
bags
ĠAdults
Ġwork
ĠDude
Ġbricks
Ġshines
Ġtechniques
Ġeve
ĠFate
Ġexcuse
ĠDAY
Ġclass
Ġpresented
idge
akin
ĠCasting
Ġfrank
heart
ĠPrep
warming
selves
Ġrattled
ĠTr
Ġconnection
Ġsalads
Ġcry
Ġsides
Ġrealizing
Ġlead
Ġgar
Ġfasc
ĠLuna
Ġnumber
Ġdisplays
Ġnative
Ġreversal
EEK
FL
Ġresult
ĠMIN
ebra
And
ĠDumb
Ġclean
Ġriff
Ġassuming
angelo
Ġprice
anish
bly
Ġcheesy
Ġcheeks
Ġfate
Ġnin
acteria
Ġfamous
ĠWEEK
Ġzone
Ġcountry
Ġglory
rich
Ġtrainer
Ġsubmissions
Ġopinion
vine
Old
Ġwill
Ġseem
ĠTomorrow
Ġdripping
north
Ġlaid
Ġspat
Ġspends
ĠLaugh
Ġrenewed
ĠPLEASE
Ġpleasantly
Ġgamer
ĠSpirit
Ġpleasant
Ġfears
Ġcardio
Ġpole
Ġsm
Ġesteemed
MY
ESH
David
itcher
amba
Ġditch
Ġpreserving
ĠMatch
100
Ġdescriptor
Ġexplained
Ġ44
Ġhotter
Ġmeas
reader
ng
Ġupcoming
Offic
Ġcrying
Ġdonated
Ġchili
Ġdilemma
mile
ily
Ġtoys
ĠGhost
Ġdelivering
EL
Ġgeared
Ġcultures
Ġhust
ĠOpt
Ġstandoff
Ġprehistoric
Ġcaus
Ġpirate
Ġkey
Ġturns
ĠExactly
Ġsounding
ĠF
HA
ement
Ġgrew
ĠIncrease
Ġtentacles
center
Ġpassing
ĠVincent
ĠGuilty
_
Ġpost
Ġphotograph
ball
Ġdiced
Ġdispute
Ġscourge
Ġgranted
ĠSurprise
ĠGEN
Ġscout
Ġstrife
Ġgained
Ġdream
Ġsauces
Ġanimated
ills
Ġraces
Ġwiped
Ġoutward
Ġutmost
Ġscore
Ġstations
Ġmatches
Ġcrest
lect
Ġmainstream
Ġintimidate
Ġinsects
Ġactive
Ġguts
Ġinvested
holding
Great
Down
Ġsurgeon
Ġravaged
Ġorgans
Ġmur
ĠBusiness
Ġwizards
ĠTomb
Ġvisit
Ġboyfriend
Ġdriving
Ġnext
Ġsystem
Ġcarrot
Ġlofty
Ġcannon
ĠAnother
Ġgrief
Ġchin
Ġheavily
Ġgoose
ches
Ġbeating
ĠEyes
Gar
ĠTHE
Ġtearing
Ġincludes
Ġrequest
Ġreferred
Ġpale
Ġtraveling
ĠMr
Ġinvaded
Ġvalidation
ĠSaw
eng
morning
attle
ĠCharm
ĠHorses
Hardware
ĠArc
Either
Ġdining
Ġbatch
Ġastronaut
Ġdrops
Ġhearty
Ġexpedition
uddle
Ġcomplicated
Ġfoolish
effective
goo
Bl
Ġguesses
accept
Ġcars
bery
141
ĠExchange
Ġatomic
ĠBrown
Ġvaried
ĠPer
Ġperhaps
ĠAdvanced
ĠStranger
Ġ41
Ġwinds
Ġafterwards
Ġmotor
Ġthousands
Ġpots
Ġdeck
izards
Ġtendency
Ġstew
oke
Ġpopcorn
ousy
ĠClear
Ġcrucial
minute
Ġworldly
Ġnutrition
Ġlogo
Ġanalogy
Ġcurtain
Whenever
Ġscratching
Ġmortal
Ġoccupational
tip
Ġfleeing
Ġprotest
Ġbreach
Ġdrifted
Ġsometimes
ĠIts
Ġnobody
Ġcalendar
actus
Ġar
AST
ĠViews
Ġhis
itates
Ġdecent
Ġlured
Ġcrowded
Ġlett
ĠValentine
ilus
distance
Ġcharging
Ġesoteric
elle
Ġwhopping
ĠEveryone
Ġbeans
Ġmastering
ĠHOU
Ġphys
Ġpure
ĠRogue
Ġprohibited
Ġdid
Ġwitch
Ġexcellence
ĠHappy
enery
recomm
Ġhooked
Ġmemorable
caps
Ġenable
Ġviolent
Ġalert
Ġpressing
Ġnause
ĠEX
Ġthunder
ĠHowever
acular
Ġhowever
ifying
Ġselecting
items
Ġelectromagnetic
ĠStand
Seriously
Ġupright
Ġspecs
ffic
IBLE
Ġmeeting
Ġtime
Ġ57
Ġbuds
Ġtrademark
tal
Ġlending
ogg
Ġcrowned
ĠTopics
Ġinvestment
ĠRapid
oding
bl
ĠExtra
oud
WHAT
Ġcog
ĠMer
Guide
igan
list
year
Ġhair
Ġbunny
Ġcarp
Ġoutcome
themed
ĠHis
Ġflashy
ĠVisitors
ĠSC
Ġbonded
Ġproperty
Ġbride
Ġsnapped
Ġhappen
ĠYesterday
ĠPractice
Ġpleased
Ġunderstood
Ġtore
Ġcoconut
Ġinspiration
Ġbet
ĠSaturdays
Ġaffecting
ĠLisa
Known
Ġsnow
ĠNeon
Ġattract
OY
aked
70
ĠAsian
Ġdads
Ġbatches
Bah
Ġclassy
ĠAdren
ĠLou
USE
Ġkindergarten
Ġchill
Ġhelps
Ġdownturn
Ġaddicted
Ġbikes
ban
Ġfriendships
Ġtested
ough
Ġthird
ĠOperation
ĠCaller
iner
Ġsessions
Ġfans
rac
ĠCopper
page
Ġfilter
Ġefforts
omet
Ġthrilling
earing
Ġd
Ġcopy
GH
Ġcords
ĠClever
Ġbutter
ographs
oid
Ġinvites
Since
ĠFact
IT
Ġmysterious
Ġhalluc
Ġcarbs
Ġjan
Ġapprentice
Ġfateful
Ġrelate
Ġconce
have
Ġseafood
Ġell
Ġcivil
Ġzero
Ġstore
code
Ġtemporary
Rain
ĠCr
nation
ensitive
ceive
ĠBased
Ġlengthy
Ġblue
Bob
Ġrod
Ġtether
Less
Ġpodcast
Ġtactile
good
ĠItems
ĠGim
hhhh
ĠAC
Ġsleeper
Ġsit
Ġmeanwhile
ĠMoon
Ġret
Bet
Ġdesire
Ġfac
Ġsucceed
ĠHun
b
Lot
ĠSick
IONS
Ġcomplete
Ġassert
chemist
11
Ġwonders
Ġrail
Ġdisappear
board
Meet
Ġment
Ġteaches
Ġfurnished
Ġwipe
ĠGuy
Mom
Ġstamina
wig
ĠIngredients
ĠBunny
Ġbench
Ġsentimental
Ġfishes
Ġequipment
oops
odies
Ġsweet
Ġmeanings
Ġimpression
Ġrelie
port
Ġinformed
mmm
Ġfrustrating
Ġbuffet
Ġcooperation
rob
Ġmouse
Ġpel
ĠUP
Ġobliged
Ġjazz
flower
Truth
Ġw
Ġwitty
ursions
Kn
Ġrobust
Ġdemanding
overs
ezvous
Ġendurance
ĠGreat
ĠBuster
quarters
Ġunderstanding
TS
Ġconclude
Ġmen
annah
Tim
makers
Ġbang
Ġpermanently
Ġmartial
fruit
Ġstall
ĠRomance
Ġbuzzing
ĠUT
Ġpuzzle
eros
an
ĠPony
Ġbasketball
andal
ĠMade
ĠHate
Ġdevastated
ĠFamily
Ġlearned
Ġvampire
rak
Ġdefeats
lins
ĠUs
ĠTournament
Ġcontinue
edly
Ġwaning
N
stage
original
aceae
Ġdrastically
Ġdisorder
ĠBed
Ġprivate
ĠRace
Ġexemplary
Ġservant
Ġinnovative
Ġdoll
Ġrevital
Ġgrandma
Ġsett
Ġtell
Ġvig
Ġmeets
Ġtravelers
Ġrearr
Ġbumps
Ġsurprised
Ġobject
flight
Ġwondering
Ġbent
atches
ĠCost
Ġcurse
Ġconsisted
urg
ĠPro
ĠNeigh
Ġinconvenience
Ġinstincts
ĠSung
Ġcomment
Ġgrill
Ġwhim
ĠMany
ĠAlright
ĠBrew
Ġbread
Ġgathers
ĠOrder
Ġhandful
Ġperception
Ġpress
ĠMarble
ia
Ġdesperately
Ġwhales
Ġquantity
aults
Ġstr
Ġboats
Ġlistened
ĠComm
ĠBro
ires
squ
Ġacross
Ġovers
ĠNice
Ġideal
Ġdock
Ġtomb
ĠStorm
Ġaltogether
ĠHit
Made
ĠSpread
Ġrotate
ĠFire
ĠPump
Ġmentality
ogging
Ġjudged
Ġcontagious
Ġrecovering
ĠHunter
ĠStep
active
Ġconflicted
ĠHell
Ġpepp
Ġamusement
Ġfavorable
Ġgallon
Ġworld
Ġinvincible
gers
Ġpiano
Ġloads
Ġhus
Ġirony
Ġpaintings
Ġfly
Ġstarters
ĠBub
Ġdiscontinued
uu
ĠGru
Ġsho
Ġpadding
Ġnewest
Ġoverest
Ġcatches
Ġcats
Ġinspired
Ġsweaty
Ġhappily
Ġawaken
ĠSnap
Ġscientific
hetically
ĠDist
Ġprescribed
ols
ood
Ġallows
ighty
gh
Ġwolf
oh
Ġweeks
ulations
ĠClouds
gen
ĠTwelve
Ġpoppy
Ġdisease
utters
as
ĠChinese
omm
ĠEvaluation
Ġsake
Ġstarred
Ġcommon
Ġselfish
ĠWIN
Ġwritten
ĠNature
Ġchallenging
Ġbend
Ġframe
Ġoption
Ġreap
ual
Ġcalling
Ġrewrite
Ġbag
ĠSc
Ġcastles
From
Ġtimer
Ġcortex
Ġcontributes
Ġtaped
ĠNar
Ġimmensely
tern
ĠBell
Ġunlucky
Ġyacht
Ġlog
Ġweakest
ĠHealthy
Ġshook
ĠFW
play
haired
Ġclimb
Ġevaluate
Ġbasics
Ġtears
guard
ĠBurn
Ġremaining
ab
Ġvehicle
Ġpatient
ĠGH
Ġbargaining
Ġvote
asters
ĠAI
ĠPR
Ġstout
Ġimaginable
Ġsites
Ġelaborate
Ġriches
Ġmeaning
idd
ody
Ġwithout
iji
Ġrapid
Ġwin
Ġvitamins
Ġ140
ĠFresh
Ġambition
Ġpermission
Ġspine
white
Ġsolving
Ġhesitation
Ġwarped
ĠBelow
ag
Ġparadise
ĠSomew
There
ĠLeap
Ġcooperate
Ġappreciated
Ġtest
win
iever
ĠUm
Ġeyel
Ġgifted
Ġwalked
Ġnegative
Ġlid
Ġspite
ĠFrank
Ġdessert
Ġplenty
Ġears
Fire
rolling
Ġlocker
orative
ĠYeah
Ġadvance
fam
Ġdestined
OSED
Ġharshly
Ġdeputy
ĠLob
Ġmisunderstood
ident
shirts
ms
Ġbrains
ĠPresents
Ġmotivated
keeper
Ġimproving
Ġresilient
Ġselections
did
Ġsecretive
Ġwhy
Ġglow
ĠMis
ĠTears
achy
lessness
Ġweighted
M
Ġinherited
ĠUr
ĠHok
Ġunders
ushing
ĠPol
zee
ĠStop
Ġdescribing
Ġgu
Ġbrother
ĠBlack
Ġcohort
ĠPride
ĠBeans
Ġchatter
development
Ġsod
bang
Ġattendants
icans
Ġproduce
ĠTrends
ic
Ġspawning
ĠAS
Ġwash
Ġgravity
Ġelement
icker
lin
Ġmeat
OH
Ġfestive
then
Ġdisappearing
#
ured
ĠSunshine
ĠMild
Ġcommemor
cakes
Ġenlarg
itol
ĠWh
Pur
ĠPortugal
Ġtracks
should
Ġwealth
Ġapprentices
ĠFacts
Ġvirtue
Ġduo
Ġoccurrence
zzle
ĠFrance
ĠStation
ĠPan
Ġsmug
Ġfant
Ġpaired
Ġrivals
point
Ġvital
Ġfreezing
Ġflesh
atics
Ġpupp
ĠForget
ackle
Ġpeaceful
Ġjeans
Ġast
Ġsoc
Ġcrowds
Ġth
ired
Ġsyrup
She
Ġindividual
ĠAppears
Ġseriousness
Ġtopping
63
ĠABOUT
Ġaccording
aken
Ġrequirement
Ġunleashed
owned
Ġbadly
Ġrecon
Ġworthwhile
Ġglove
ucky
icians
Ġthese
ĠThen
Ġenthusi
Ġyours
eps
itz
jud
ĠFortune
ĠObviously
Ġapartment
Ġbreathtaking
ĠBasketball
Ġastounding
coon
ES
Ġintensity
Ġmission
Ġcivilized
Ġhello
Ġleisure
est
Ġrighteous
Ġorganize
izzle
Ġcloses
ĠEarl
insky
Ġpatterns
police
Ġoutdated
ĠA
Ġforget
Ġbeach
To
Ġsuck
ĠPanda
Ġcollector
Ġsunscreen
Ġearth
Ġupon
poke
istent
Ġteammates
Ġastronomy
unes
ossible
Going
ĠOld
Ġpropag
raid
Ġpar
Ġcurious
act
Ġpaddle
Ġof
Ġannounces
ĠMessage
Ġnib
Ġfired
Ġspecific
ises
Ġtone
ĠCake
oller
Ġelements
isk
endish
Ġshould
Ġtul
yes
ĠOw
Ġunderworld
Ġdev
Ġplacement
Ġhobby
Ġreceived
Ġtrail
mallow
Ġkilled
ĠCA
Ġ|
EE
Ġspew
Ġjealousy
ITAL
ĠMAN
Ġsuffered
Earlier
Ġhorse
ĠBen
ĠSPACE
Ġtuned
Spl
Ġtrick
Ġsinks
Ġoutfit
Ġbump
ĠCI
Ġsly
Ġrelief
Ġzoom
Ġanswering
terior
ĠSunday
aming
Ġinjecting
Ġoverhe
Ġemotions
Ġdreaming
Ġhereby
Ġprecisely
ĠRome
Ġauthentic
ACH
Ġselective
Ġhumility
ĠChef
Ġmembers
Ġbenefited
ĠMIL
Ġenacted
Ġbored
una
Ġplanned
Ġbitten
Ġaccommodate
Ġchatting
Ġpromotion
Ġnaturally
Ġwarning
ticket
Ġsheep
ĠTuc
ĠWild
Ġstares
Ġscience
ĠKid
Ġsafe
Ġnighttime
Ġeconomics
Ġlatch
hz
Ġcircling
Ġbrain
ĠCock
Ġfocused
Ġpearl
Ġdeeds
ĠGathering
Ġslipping
Ġwell
Ġsled
apped
Ġaffinity
Ġhobbies
ĠTap
Ġlecture
Ġbrands
ĠRelax
Ġadults
Ġbehaves
ĠOwl
Ġcomplain
ĠSur
ef
Ġprone
Ġstandings
Ġbook
Ġstatistics
ĠCup
Ġhired
appy
Ġheated
Ġsurround
Ġmistress
ĠCha
Ġsomewhere
Ġ100
Ġcontinuing
Ġpowerful
Ġviolation
Ġtraveler
Ġmodels
Ġlandfill
Santa
Ġwa
Ġcontract
Ġhim
Ġoverwhelming
ĠEven
Ġrope
anges
Ġinfectious
The
Ġgreeting
writer
Ġnecks
Ġcrystal
ĠDig
ĠFe
Ġflowing
Ġreadings
Ġnuisance
Ġpinpoint
Ġscandal
Ġrails
cc
Ġnifty
ury
concert
ĠMemory
Ġmes
Ġpast
ĠAb
Ġcolder
Ġcuc
Ġinquiries
Ġonstage
Ġcommitted
Ġrecorded
Ġcompassionate
ĠCon
Ġfailure
yet
Ġoverlooking
Ġattached
oi
Ġtir
Ġfalling
Sn
Fi
ĠWhether
Ġacted
urous
ĠCloud
Ġblender
Ġtrophy
Ġhopped
ĠMarch
Ġautomatically
Ġhead
Ġadds
Ġstyled
Ġsafer
ĠFighting
Ġheavens
ĠInd
Ġsuppose
FUL
Ġcasual
Ġscouting
Ġfroze
Ġkingdom
Ġsuch
ĠEspecially
ĠFut
lly
In
Ġforeign
ca
ĠInterest
Ġconsent
ER
Ġhoard
Before
Ġsloppy
Ġscalp
bert
Ġsubmarines
Ġper
Ġappeals
ĠGould
isher
Ġtaxes
Ġhel
ĠVe
ĠBoys
Ġsheets
ĠV
something
form
ĠBL
Ġpreempt
ĠFlip
Ġpeculiar
ĠWent
Listen
ĠTennis
Ġeaten
Ġnotifications
Online
icycle
Ġscores
Ġexchanged
Ġrepresent
Ġworks
ĠANY
Ġla
Ġmasters
Ġmonsters
ĠFloor
Ġscattering
get
angs
Ġsilent
Ġgracious
Ġescapes
ateurs
Ġbronze
ĠConstruction
ĠLie
ĠBon
oker
Ġsim
Ġgig
owers
ĠJean
que
Ġtalks
ĠPage
ĠExercise
Ġlabor
ĠFrequ
Ġpassengers
Ġprofile
Ġinspect
Ġenvironment
Ġstripe
Ġsome
Ġdeserted
Ġamp
Ġpumpkin
Ġletters
jiang
Ġspeeds
Ġcircle
aughty
ĠOr
Ġfits
asso
Ġmanagers
Ġpraying
ĠParents
Ġbare
ĠR
Ġneed
Ġlayered
Ġunknown
Ġconverting
ĠAutumn
However
ĠMat
ĠGentle
Ġhiking
Ġfavorite
Ġaisle
Ġaquatic
Ġfollowers
Ġconsidering
Ġsupermarket
Ġtele
obia
Ġinspected
ĠSum
Ġreduces
ĠPitch
Ġequivalent
Ġvet
Ġsubconscious
Ġcup
Ġdrums
ida
ĠYellow
Never
ĠComplete
Ġdetects
Ġham
Ġspit
Trend
Ġdouble
Ġsourcing
Ġfetal
Ġviewed
Ġfault
Ġboost
Ġ120
Ġmornings
Ġplaque
Ġdeliberate
Ġbills
Ġbusinessman
Power
Ġbiomass
Ġquietly
Ġserver
Ġhail
Ġrazor
Ġ3
Ġcollapses
ĠMove
ins
found
Ġsettle
Ġstitch
Ġresolutions
Ġsens
ĠSundays
Will
odor
ĠIM
ented
Ġtho
educ
spoken
Ġincrease
Ġherd
Ġfatal
Ġpains
oney
Ġspoiled
ĠNiagara
Ġpos
Ġ50
che
mail
ĠOctober
Ġdriven
Ġbending
press
Ġyells
ĠRibbon
Ġgently
Ġkeyboards
writing
Ġtelling
identally
Ġyouth
hill
Ġplum
Ġfighting
ĠGn
communication
Ġwider
Ġseasons
Ġscent
Ġproc
Ġbrought
Ġservices
Ġbackup
Ġbalanced
Ġmelt
ĠOR
Ġdemands
Ġreveal
lasses
cons
Ġuseless
Ġfoster
Ġgold
Ġinvent
Ġarrives
Ġcomeback
Ġlocate
031
Redd
Ġbul
ĠWalk
Ġcapture
ĠSoci
Ġunused
Ġresidence
Ġaim
Whatever
Ġevolve
Ġfeast
Ġdevotion
ĠAwesome
ĠSay
men
Ġcomputer
Ġpositioned
ĠTiny
ĠREPL
Ġreservations
orous
Ġnotorious
rec
ĠLONG
Ġskeleton
Even
ikawa
Ġangles
BLE
Ġfrown
exc
Ġcute
ĠYet
theme
Ġpenal
ance
Ġf
ogue
Ġkn
Ġwing
Ġgrocery
Ġbubbles
ĠClock
Up
Ġballoons
DS
Ġpraise
inas
ior
eday
Ġfinish
por
Ġslopes
ast
Ġaccess
yle
Ġlaps
Ġheart
ann
ke
cho
Ġshipped
Ġfatig
Ne
ĠFew
Ġmidnight
Ġofficers
ind
ĠSmash
Ġdissu
DAY
atic
Ġexplorer
Ġsigns
Ġbothered
Ġinsecurity
gan
aling
Ġbelongs
Ġimpose
Ġunhappy
ĠTest
Ġalas
Ġballoon
B
ĠReally
Ġtarget
Ġworthy
anas
Ġlady
Ġsmack
Ġmobile
unk
Ġoffer
Ġchecks
Ġpersonal
Ġsucker
ĠIC
udging
Ġhorizontal
Ġhundred
Ġdictionary
song
ridden
andel
Ġexpression
Ġmisunderstanding
Ġposs
Take
Ġsoda
Ġbursting
Ġnoises
Ġallowed
Ġunm
Ġhigh
Ġofficial
Ġsleeping
Ġdamage
ĠSpeech
Ġvalued
Ġflashback
wing
Ġcleaners
Ġsleeps
ack
ĠBaseball
Ġtravers
Ġmammals
tw
owl
ĠPill
Ġflakes
int
Ġpit
Ġsucc
idges
Ġhealed
ĠCeleb
Ġson
Ġfought
Ġleg
Ġeverything
ray
Ġopen
Ġcrown
uba
Ġcomfortable
ĠModern
Ġnap
ĠTravel
ĠComp
urat
Ġfeather
ĠNeptune
immers
Ġfair
Ġdiction
Ġpumped
Ġcrave
Ġprepared
Ġlie
Round
ONE
ĠHigh
ĠHunt
Ġheavier
Ġwaste
Ġtribute
Ġexpansion
ffff
ĠMrs
Ġprofessionally
Ġlists
ĠGon
ĠGuardians
Ġpiercing
Ġpour
Ġassociated
ĠBless
Ġflares
Ġburden
Ġproving
Ġfind
ĠReal
Ġsack
Ġregion
Ġgreater
ĠSugar
Ġtro
organized
Ġrou
zy
Ġribbon
Ġyield
ĠInternet
ĠDod
Ġdrinks
ĠBare
ĠMUST
Ġwed
pillar
Ġgrim
Ġmammal
Ġactor
Ġmention
uggets
Ġradioactive
season
erv
J
Ġmob
mel
Ġsouven
art
ĠAH
ping
Ġkills
Ġdash
gest
Ġhold
ĠREALLY
top
card
Ġarticles
ĠTimes
Ġsession
ĠKO
Ġprocessing
Ġvitamin
Ġplanes
ugar
ĠHungry
Ġzoning
pecially
Ġ45
GM
ĠFrog
Ġstandout
Ġconsultations
Ġopted
ering
Ġantis
utable
Ġwherever
ĠFrozen
Ġidentification
Ġsatisfied
letes
Ġresponding
ĠRug
ahs
rep
Ġpledge
Ġsign
rain
Ġsmoke
Ġtabs
Ġtaco
Ġgentle
Ġenv
Ġthus
Ġles
Ġmotorcycles
ĠMac
Ġproducer
ĠEntry
Ġgazing
ĠSeeking
Ġservants
Ġoffers
Ġstopping
Ġdictate
Ġammonia
ĠPhantom
Ġreminis
Ġkinda
Ġweekly
Ġstories
Ġshr
about
Ġdeal
Ġconsistently
Ġdoub
Ġcannons
irts
edy
Ġaccessed
emed
Ġ16
ĠBelieve
Ġsuper
Ġstimulus
Ġinsulting
Ġmat
Ġimpartial
ĠWhoever
EM
Ġdestiny
Ġhemisphere
ĠFlash
Ġshortage
hood
osaurs
Ġracer
Ġdemonstrates
Ġlater
Ġsheer
Ġgeneration
received
opp
ollen
charged
Ġsky
Ġcloser
Att
ĠLook
Ġbreathe
Ġz
eting
Ġcycling
Ġfunction
ĠKnock
Ġreputation
Ġframed
Ġsnatched
Ġsnaps
Ġripped
uristic
Ġinvited
Ġmushroom
ĠBuilding
Ġunder
Ġcapsule
anking
Ġconstruct
dom
ud
Ġsurprisingly
Ġpile
ĠPolice
Ġbillboards
ĠNin
Ġconsumption
ĠCa
iped
Ġrichness
know
Ġexhibiting
Ġlo
Ġconcert
Ġward
Ġharmful
Ġhuge
oooooooooooooooo
IGHT
Ġreigning
Ġking
Ġgang
Ġfragile
Ġelectric
Ġblows
ĠGroup
Ġhilarious
Ġproclaim
Ġactiv
Ġ366
ĠRaj
ĠPike
Ġnormal
remember
ĠALL
ĠDIY
ashing
oves
UGH
Ġvegetables
Ġvendors
mon
Speaking
sc
brain
Ġparty
Ġeventual
ĠAnimals
ĠTemp
Ġrestrooms
ĠGar
Ġbroad
oting
Ġhelmet
Ġsuperintendent
ĠEvidence
Ġdemon
ĠDr
Ġshare
ra
Ġlied
Ġrhy
Ġshelf
OTH
Um
bat
Ġpits
Ġapart
ĠGeneral
Ġran
ĠFriendship
Ġdecides
examination
rel
ĠArg
ĠSweden
Ġrunner
Ġcreator
Ġshack
Ġpoultry
rell
ruits
Ġnum
Ġpoisoned
Ġcreek
Ġliquid
Ġillusion
Ġjud
Ġplea
Ġdepends
Ġhill
Ġtidy
Ġlump
los
Ġfal
ĠFlower
ĠForever
Ġnational
Ġnear
essert
Ġtests
liners
Ġburd
ims
Ġassign
ĠLand
iness
ĠDrinking
ĠCar
ĠOrient
ĠSeason
Ġreckon
Ġeh
Ġfitt
ameless
Ġoverdue
Ġin
Ġstrongly
gain
ky
setting
ĠPin
Ġdiversity
Ġstores
ucking
Ġlact
Ġstocking
Ġdough
Ġbreakfast
Ġcalls
ĠRed
Ġamazingly
Ġdestroy
Ġlug
ĠSpanish
ĠNintendo
Ġadvisor
ĠRunning
Ġheaven
Ġtraveled
Ġtesting
enh
Ġinherent
ĠLobby
ippy
ican
Ġstealth
making
VE
Ġdecorative
Ġheck
unia
Ġcarniv
Ġlasts
Ġenchantment
ĠBit
Ġfools
ĠAM
Ġlabels
Ġripple
Ġawfully
Ġpause
Ġbelow
ĠCDs
Ġmode
Ġposters
Ġhonored
Ġexcessive
ĠEnjoy
ĠBatt
ĠQuantity
ĠRic
Ġsensible
Ġlogic
opping
Ġalongside
Ġroad
Ġprom
chy
ĠMeow
Ġloss
ĠDifferent
Ġmoral
ipop
Ġresults
ĠWarm
Ġcrops
Ġenerg
Try
Ġradical
NS
Ġusing
Ġelite
ĠTA
amp
ĠBravo
Ġhumidity
Ġadventurer
Were
Ġevaluation
ĠSteam
ĠCho
Ġcu
ĠSuper
Ġdownright
ANG
Free
KING
Ġpicked
Sure
Ġvillains
Ġdisplayed
Ġ43
Ġgrains
using
arb
might
Ġretire
Ġoffice
Ġvarying
rawl
Ġstops
Ġpairs
Ġstead
Ġhalls
Ġcz
Ġindicate
better
Ġabilities
Ġportion
Ġbosses
Ġcaliber
Ġshrink
ai
LY
Ġpleasure
Ġdelighted
ision
Ġmusical
ĠEnter
Ġtube
Ġby
erest
ĠEvent
Ġvictory
Ġdrowning
REE
Ġble
Ġlegit
DO
Ġmachines
Ġoperation
Ġhosting
Answer
Ġsprung
cat
Ġreintrodu
Ġns
athered
ocious
Ġcounted
Ġaccessible
maybe
ĠMount
ĠAw
Ġcontest
ĠDri
Ġple
Ġ364
igh
etime
Ġcrimes
illing
Ġpres
Ġclones
Ġsatisfaction
Ġbidding
Ġsorted
Ġshowing
ĠGoo
Ġor
fin
Ġstink
Ġprimarily
ĠMovie
Ġconfusion
Ġnurse
bee
Lady
Ġsells
Ġbits
Ġspar
aded
the
Ġflawless
Ġwraps
ĠChoose
water
Ġtexture
Ġsuggestions
Ġdenial
side
sum
Ġexpensive
ri
ĠDram
Ġchallenge
Ġquicker
stroke
urer
Ġmash
iger
Ġalready
ĠSUP
Show
Ġsweats
Ġendured
ĠTiger
Ġincredible
boys
iv
Aside
ĠLeonardo
ĠMcG
Ġit
Ġlocks
ĠSuite
Ġapproaches
Ġclerks
ĠNO
reetings
Ġprepare
Ġrough
rika
reath
Ġalarming
ĠCic
Ġserv
Ġzombie
Ġsalty
Ġancestor
ĠHalf
Ġbusiest
Ġperfection
Ġbeforehand
Ġstar
apt
Ġparking
Ġinsomnia
Ġchoked
Ġerase
Ġforc
Ġstrengthen
Has
ĠInformation
Ġpray
Ġprof
ĠRepe
Ġash
Mos
Ġtrembling
Ġspy
gg
Ġsketches
agged
Ġdownloadable
Ġtopical
Ġgimm
ĠSUM
days
ĠActually
Ġoverview
Ġalso
Ġworth
ĠWHY
ealing
Ġtypically
Ġunfinished
SE
Ġraining
level
Ġsubmission
Ġmonkeys
Ġscreening
Ġfrantically
Ġlent
Ġhaze
uffle
ĠChase
Ġrestores
Ġventure
Not
Ġsay
Sur
Ġbland
rav
Ġappointed
co
Ġearned
IN
Ġunderlying
urnal
Ġtossed
burn
Ġproud
Ġeco
Ġspac
Ġmammalian
where
Ġdish
Ġcontinuous
Ġwearing
Ġsend
Ġtables
Ġdirections
Ġdoubtful
Ġreflex
Ġquirky
rella
Ġfitting
Ġlimbs
ished
Ġaloud
ĠIdeally
Ġadvanced
rely
ĠSuit
Ġbr
Ġthink
ĠUniform
Ġduties
ĠWard
Ġgaps
Ġeast
aly
ĠRib
Ġbulb
arium
Ġmedd
ros
Ġtools
Ġimplying
Ġautumn
ening
Ġodor
Ġtents
ĠOpen
Ġnone
ERE
Ġwins
Ġboxer
Ġbutterfly
ĠPlace
Ġrefers
Ġblues
Ġconscious
ĠSom
Ġshared
OSE
each
ared
Ġheroine
Ġchats
ĠPlant
luck
ĠHort
mony
EP
ĠItalian
Ġstrangely
Ġdeposit
ĠShy
ĠBefore
ĠPoints
uber
Ġoverturned
Ġcooling
opped
ĠOd
Ġsquirrel
ĠFor
ĠDOES
left
Ġdishonest
Ġyet
Ġopposed
Ġseas
Ġsale
Ġsol
Ġarc
Ġminor
Ġuser
Ġfees
ik
Ġissue
ss
Ġannounce
oil
Ġleads
Ġnuts
Ġlacking
ĠSER
Ġobligated
Huh
Ġunparalleled
Ġnotebook
ter
Ġsynchronized
os
Sorry
Ġmarkings
ĠEAR
Ġmercy
Ġput
Ġpolice
Ġboard
Ġplaced
Ġconvinced
Ġmessage
Ġphase
iceps
Ġfig
ĠMON
Ġrecycled
ful
IZ
Ġprovided
ĠTonight
ety
esome
Ġthankful
ist
Ġedible
ASH
ipper
Ġaccepted
Ġwoke
rack
Ġstood
Ġmorning
ĠSpending
please
ĠAlbany
add
ĠDAR
Ġlevel
Ġmethod
ĠStar
Ġcandles
big
Ġbub
Ġserves
Ġinvite
Ġstirred
Ġcopied
Ġoffended
Ġabsorbs
sl
Ġmigrate
aca
Ġhesitate
Ġreply
proof
ĠCharleston
Ġrush
world
rate
tap
ĠRum
Ġpaints
Ġmonster
Ġrestroom
ĠLei
Ġrelocate
Ġgentleman
row
ble
Ġposter
Ġgarn
well
Ġfrig
six
ah
Ġhints
Ġcorrective
Ġbefore
uckle
ĠAGA
ighth
Ġstrikes
stery
Ġbrings
Ġmethods
athering
tor
Gr
ĠMysterious
Ġwiring
verse
ĠTalk
opes
ĠUnited
Ġburg
Ġphony
Ġghosts
public
Ġsturdy
Ġdrift
WR
Ġexpected
phrase
Ġremove
Ġfilled
Ġevening
Ġsorting
iders
Ġannouncement
Ġcatcher
Ġfend
Ġattempts
ĠMarket
Ġpalette
Ġcriminal
Ġpizza
ake
ĠSeek
ĠIndia
Ġfurious
opher
Ġshin
Ġspell
Ġbucket
ĠCur
Help
ĠL
Ġoutfits
ivable
Ġcereal
Ġnecessarily
Ġpopulation
AS
ĠLooks
Ġanticipate
Ġpassive
Ġet
Ġaccurately
bered
ĠPIN
Ġhospital
irl
Ġessence
Ġthrilled
ĠText
drops
Ġrightful
Ġsuits
aph
reat
Ġwater
Ġfavor
Ġcelebrating
Ġridiculous
everyone
Ġhaha
ll
Ġgraceful
ĠHAVE
Ġthrow
Ġinstallation
Ġsmartest
Ġsell
Ġway
Ġwas
mus
Ġunfair
Ġowns
Ġworthless
Setting
bath
older
Ġwithin
Ġdecaying
With
ĠTact
Ġthorough
ral
Ġchord
Ġgives
Ġbeginnings
ĠIn
ices
Ġdiplomacy
Ġamps
ĠSET
umber
ĠTwisted
Ġhandwriting
Ġinterpret
ĠRaise
ĠApril
Ġunderwater
Ġguitar
Ġsignificant
Ġteach
Ġlamp
ĠTommy
imate
ĠTen
Ġcombat
hered
Ġpict
ĠPresent
Ġsender
His
ĠCertainly
Ġvalves
ogn
Ġcandy
Ġless
ways
Ġcorporate
III
Ġhurdle
ounced
Ġprotr
Ġcourse
Ġwonderfully
Ġstationary
ĠSold
Ġdemand
Ġfailing
Ġstranger
uz
Ġtoday
Ġquota
Ġseam
rap
ĠCuriosity
Ġtrump
Ġgorgeous
RA
acher
ogly
Ġflaws
ĠMember
cent
Ġbattery
Ġfence
ĠNight
Have
Ġdistinctive
broken
Ġfriendship
Ġalternative
ĠStreet
Ġpir
Ġove
atos
Ġroom
insert
ĠAck
ĠLiterally
Ġeasily
ĠTaste
Ġsurvive
Ġlays
Ġparental
Hop
Ġowned
012
Ġlove
ĠAcid
Ġcorrupted
ĠFine
Ġover
Ġshifts
Ġnail
Ġprofessional
Ġsignificance
Ġbin
rent
Ġstarving
Ġwall
Ġgrowing
ĠGREAT
Ġdedicated
ont
Ġbrew
Ġstupid
Ġinterviews
ifts
Ġvary
Ġchief
Ġgreedy
Ġparting
Ġrises
Ġdolls
Ġjoy
ĠInstant
ĠMale
asm
Ġmeaningful
Ġdetriment
agna
Ġblunt
Ġleftover
onna
ovation
Ġdeg
Ġton
complete
Ġimagination
UG
Ġtry
ding
Ġcourt
Ġrom
py
ĠPress
shaw
Ġimmature
Ġreport
Ġdesigning
Ġportraits
umbers
ata
ĠHorn
ĠThankfully
oms
Ġculinary
uous
Ġextension
Ġharder
ĠWords
Ġlabel
xious
ATE
Ġclosed
Ġmiddle
Ġenergetic
Ġconcentration
Ġsword
Ġtotaled
Ġsauce
Ġhabitat
Ġcredit
Ġmostly
ĠSanta
elong
Ġpunishment
Ġfactory
item
iled
Ġsmelled
Ġchic
Ġdrew
ooks
Ġcooked
Right
Ġlegend
Ble
ĠPure
ĠSham
Mem
astics
lease
rn
Ġstrap
Ġyak
Ġbox
SD
ĠEventually
w
Ġspicy
ĠMountains
Ġalternate
Ġlifted
Ġlow
That
ĠCurious
Along
Ġsigning
ĠMORE
Ġdirty
ĠChat
Ġrare
Ġmakeup
Ġcouple
orbit
Ġhumorous
osaurus
Ġlessons
nn
ĠUnder
Ġtank
Ġcustomer
chet
Ġfellow
Ġdazz
Ġvacant
Ġacceptance
Ġbestowed
Ġmaintaining
Thank
Ġbeautifully
ĠRe
Ġsubjective
Ġsparse
Ġafford
Ġunfl
Ġoffered
Ġpossibilities
Ġgender
ĠMust
illard
Tomorrow
Ġsqu
ĠTO
ĠDu
Ġmiracle
Ġnar
ĠDar
Ġwhisper
Love
Ġfine
./
ahah
Ġ160
Ġalien
ĠLiving
ĠWish
Ġloud
iny
oni
ĠSounds
9
Ġentire
Ġplanted
ĠRo
ival
Ġdishon
melon
Maybe
ĠEinstein
Ġinsistence
Ġrepeat
Ġindicates
Ġsecretary
Ġinfancy
Ġresident
blown
Ġconvertible
Ġcomp
Ġterrible
Ġsolution
Ġpurpose
Ġbusted
sy
Ġspreading
Ġsinger
Ġtransforms
ributed
Ġoutline
Ġwitnessed
Ġstaple
Ġterms
renched
Ġbasement
Ġbeliever
Ġcivic
ĠSad
Ġglass
Ġtrim
imating
Ġstretching
asis
Ġcholesterol
Ġchances
ingo
ĠSweet
Ġpeach
ĠPrime
Ġsimply
ovy
Ġaccessory
Ġbird
ĠSaying
Ġnews
Ġgarg
Ġtunnels
UST
ĠWrap
Ġfundraising
Ġits
Ġmovie
Pop
ĠBoat
Ġtook
ready
Ġbeneath
ted
Ġweapons
Ġdinners
Ġbetween
ements
ulation
Ġcross
Ġambitious
Ġguided
friends
Ġwarn
Jump
IK
ĠAudio
Ġanyway
ĠRule
ESS
Ġmasculine
chi
Ġemphasizes
Ġwaiter
Ġego
atively
Ġestablished
bold
Ġmentioned
Ġdifferent
Ġaur
Ġadd
OULD
ran
Ġicon
Ġsigned
aghetti
ĠNoct
Ġheads
Ġspeech
word
Ġdealt
Ġdos
Ġparticipating
uit
kept
Ġanx
ĠCenter
Ġmer
ĠWANT
UT
ĠVR
iao
Ġgenuine
Ġmis
Ġrumored
Ġmedium
un
ĠCAN
Ġinclude
Ġfacility
Ġsadly
Ġcookies
Ġattain
Ġsteal
ĠInst
Ġschools
ĠINS
ĠSeriously
ĠRES
ĠHighly
Ġrolled
wood
crow
Ġtours
Ġmerry
Ġseveral
Ġrunning
Ġgreat
ĠAct
ear
puted
Ġtelevision
Ġtal
uch
Ġappearing
Ġwasteland
ĠSt
Ġprint
Ġtightening
Ġlocked
Ġscars
Ġcolor
Ġviol
Ġanytime
zin
Ġmischief
ĠTruth
Ġdoom
Ġfathers
Ġsurrounds
ĠFIGHT
Ġsight
hes
Ġsus
Ġtrapping
cules
Ġturbo
Ġstudies
Ġmicroscopic
Ġfry
Ġdad
reating
Ġencaps
ĠLearning
could
Ġrecovered
Ġrinse
spec
Ġbridge
Ġdefinition
Ġbaby
ĠTad
ide
ĠBeg
Ġexpand
astered
book
Ġsqueeze
Ġtub
Very
Ġbutt
hot
Ġwebsite
Ġfollowing
ĠKab
Ġanchor
Ġseasoned
Ġstick
Ġbears
Ġtonight
Ġyearly
Ġenvironmentally
orph
Ġmetric
uffer
Ġtravel
under
Ġboom
Ġsent
Ġverse
Ġsmell
New
Ġsemifinals
Ġgrin
Ġreasonably
Ġdozen
Ġgul
Ġassessment
rawling
Ġmanner
agus
ĠFollow
ĠHonest
ĠDR
face
Ġpointing
SS
usc
empty
tering
ait
chin
Ġfeud
ĠSatisf
Ġcarries
Ġbranch
sensitive
Ġdrill
Ġright
ĠSHA
Ġsteadily
Ġloc
Ġfairly
Ġcens
ĠLabel
Ġcategory
Ġmainly
Ġseconds
ĠPatrol
Ġreaders
POS
Ġapproves
ste
Ġbanished
Ġgaze
ĠSide
ĠRainbow
uth
drivers
ĠCats
Ġperpetual
Ġpictures
Ġever
Ġlate
record
Ġsick
Ġneither
ĠLeading
Ġcooperating
Ġhour
Ġday
ĠBug
Ġdyed
Ġdeleted
ĠFACE
teness
Ġconductor
ĠDone
Ġo
Ġop
Ġengine
Ġpace
Ġuncanny
food
ars
Ġworry
Ġswallow
Ġgate
Ġfunny
esc
ĠFan
ĠFit
Ġconsolation
Ġtray
Ġregimen
Ġhatch
Ġmailing
oved
Ġrept
Ġcosmos
Ġalong
Ġmisunderstand
Ġexhibit
tle
Ġresolution
inducing
Ġcareful
Ġforgetting
Ġyoung
Ġgrain
Ġgir
Ġordered
rows
Ġpaper
ĠHOME
ĠPerson
Ġplanning
Tem
Ġawaited
isu
Fu
Ġnineteen
asing
Ġgenerations
Ġstarting
Ġepidemic
Ġcr
Ġbacon
Ġcarrying
worked
ĠJam
Ġdisciplines
ĠFROM
Ġcy
Ġrather
ĠSid
Ġreceptors
Ġdanger
Ġhelpless
''
Ġdetective
Ġcaf
Ġacquaintances
Ġtrained
ĠIniti
Ġrebellious
ert
Ġlittered
ĠEVERY
ĠFE
ĠPast
Ġguide
andy
Ġ250
Ġsoaked
Ġlend
Ġopens
urs
lee
ĠQuestion
Ġsec
Ġdestination
Ġnurturing
Ġaggro
Ho
Ġbid
Ġtuna
Av
Ġengaged
Ġviable
Ġoverw
ĠRoman
liness
Ġcitiz
Ġacquaintance
ĠRR
Ġsuperv
Ġappreciate
Ġscam
ĠSport
Ġvelvet
Ġunbelievably
ĠChance
Ġgoal
ishy
Ġteams
Ġskysc
ppings
ient
Ġmax
ĠLots
alth
Ġtreating
sing
Ġrumor
Ġshortcuts
Ġwalking
Ġcav
GE
ĠHoo
Ġimpl
ĠSkip
Ġcompare
Ġtemper
ĠBang
Ġfollows
Ġintriguing
Ġmildly
Ġdigging
ression
ĠBye
Ġrule
Ġrating
Ġimpressions
Ġparticipants
Ġvoice
Ġweekend
Ġot
Ġdangers
Me
Ġloaf
Ġcones
esty
ĠMuseum
ĠLEDs
Ġclash
her
abouts
Ġstraw
oof
Ġheater
Ġfam
Ġbon
Ġawakening
ing
Ġowes
Ġcontained
ĠLAST
ipt
ORTS
Ġjuice
close
bees
Ġjoining
sounding
Ġexplodes
Ġven
aughter
ĠMess
Ġtwist
ubby
ĠLight
Life
Ġexhib
Pre
Ġlegitimate
Ġreleased
Ġworrying
stand
Ġeconomy
ĠTalking
gone
Ġreconsider
Ġdistant
Ġteachers
Ġpulls
Ġfreaking
Ġrevived
Ġparachute
ĠCrisis
ĠGets
ow
ĠRen
ĠPeel
Ġpeasant
Ġstation
ĠSTAR
okin
ĠLost
Ġimported
ĠReady
Ġgroove
eks
Ġtranquil
Ġstory
Ġstatement
Ġclick
Ġtreadmill
Ġinter
Ġraced
Ġtang
ither
Ġgradually
Ġdisappointed
Ġdigital
Ġmats
vs
ĠOWN
Ġke
ĠCarry
chip
Putting
awks
ĠYEAR
Ġsubstitute
Ġcomplained
Ġge
About
ĠLoaded
Ġdwelling
Ġpassion
ĠSunrise
ĠInsp
Ġgray
Ġfascination
Ġfetch
Ġwrinkles
ĠWinning
ĠIs
ĠMO
Ġbattered
Ġthroats
uned
ĠPic
Ġguitarist
beans
ouncing
ĠSonny
Ġangry
Ġful
Ġwaiting
Ġspaces
Ġcavity
Ġfurthe
ĠGoing
Ġdisagreement
Ġstorm
Ġaf
Ġcontroversial
Ġfled
Ġtapping
Ġclaimed
Ġwhites
Ġfashionable
Ġbasic
Ġleap
set
ĠCl
Ġsix
Ġgrun
ĠAbs
Ġtacos
Ġunless
Ġclever
Ġsong
Ġwarehouse
Ġdedicate
Ġstuffed
oph
professional
Ġcultural
Ġtomatoes
Ġcalf
Ġdiapers
oper
Ġrally
uted
Ġcum
Ġ1899
Ġho
Ġgreet
Ġwatching
ĠSmile
Random
Ġwished
Ġderailed
Ġtreasures
Ġenjoyable
Ġalgebra
abel
ĠSwap
ocks
staff
Ġessentially
Ġplus
antically
Ġhang
Ġticket
ĠAlready
Ġplural
osen
ĠMarvel
Ġhideous
Ġincluding
abby
Coming
ĠNOW
Ġapiece
ĠNearly
IAN
Ġblamed
ĠServ
arn
Ġshoppers
Ġsensation
Ġretail
Ġprotests
ĠMethod
Ġpretending
Ġseriously
bell
Ġbrace
Ġbeauty
Ġgle
ĠHQ
Ġwrath
bench
Ġwrestle
ĠAlways
Ġcoughing
fest
aster
Ġdramatic
Ġnewer
Ġsew
ĠQR
Ġslide
Ġfew
ĠU
hun
Ġdenying
into
ĠST
vers
Ġconfusing
Ġslowly
Ġstay
Ġearlier
Ġmetaphors
Ġmem
Ġpetition
Ġhost
Ġdeed
ĠKeeping
42
Ġsimilar
ĠPhotograph
Ġspider
oooo
Ġbo
ĠChip
Ġshrine
Ġbadges
iture
Ġpuzzled
ĠGloves
Ġrecycling
worn
ĠBall
ĠShoot
Ġtrunk
Ġanguish
Ġfascinated
ax
class
Ġgrant
ian
ino
SL
Ġwhat
ĠParty
Ġtwisted
Ġentitled
hr
Ġcave
Ġvisited
ĠEating
Ġresistant
ractive
Ġreached
ĠLearned
arious
Ġcream
ĠHel
ĠSale
Ġframes
uds
Ġintr
attack
ium
Ġincentive
Ġrude
Ġrelation
Win
Ġcops
ĠTrash
yles
Ġlyrics
Ġstumbling
ate
Ġtimber
Ġtheirs
ĠImp
anked
Ġbackyard
hra
Ġstop
Ġminimal
Ġarr
Ġexpired
Ġancient
Ġhelp
Ġprinting
asuring
home
ĠSeal
he
Ġumbrella
Ġpreferred
ograph
ĠVP
ĠScal
isite
Ġcoached
ĠProcedure
ĠFalls
Ġcollecting
Ġwords
Ġdime
ĠLOOK
Ġpests
Ġtwilight
sale
Ġblank
Ġstressful
Ġrigid
Ġremarkable
Owner
ĠLights
Mon
Ġdropping
Ġbegged
Ġspotlight
too
Ġcomplex
ĠBEST
Ġcrush
OOK
ĠOt
ĠTeaching
Ġmy
Ġfloat
re
Ġbuys
Ġexc
Ġcorrected
ĠFoss
Ġwelcomed
ook
Ġbell
Ġparents
Ġseized
eled
osh
sche
pointer
Ġsleep
ĠAdd
Ġcreation
Ġprices
ĠTill
Ġroughly
Ġagreed
ĠVac
Ġcoping
Ġ1850
Ġdrink
Ġmeal
love
ĠGone
Ġunderground
fighter
Ġdirect
Ġdelightful
Ġrelatives
Ġreal
ĠShiny
Ġjoins
Ġpreferably
ĠNever
ĠOW
agers
wall
ress
downs
Ġimpulse
umb
Ġ31
Ġshaken
Ġflaw
Ġ35
Ġcount
Ġbehave
Ġhomes
ĠONE
ĠMonthly
Ġleaders
ED
Ġfutures
Ġhaw
Ġblond
aha
Ġland
Ġgross
NES
engers
Ġblood
Ġuphold
Ġunderrated
nant
Ġaccept
Ġvo
manship
Ġr
Apparently
ĠStyle
Ġgloss
ĠIntro
ĠAW
JECT
ules
ĠPosition
Ġlikely
umbs
Ġdrag
ĠFive
Ġbowls
Ġgiven
Ġdive
Ġfri
Ġtransferred
axy
Ġsnipp
Ġhearing
Ġrecipe
Ġwoods
ĠArm
sure
Ġblind
Ġturned
aw
Ġyounger
Boo
Ġovernight
Ġinput
ĠWolf
Ġka
oshi
Ġreplaced
ĠLim
Ġgorge
Sun
Sal
ĠPaul
ĠTesting
Standing
Ġexquisite
ĠAD
ĠTHEN
Ġdance
Ġspill
ogs
Ġan
horse
pled
Ġcoupon
Ġcasing
Ġwhirlwind
Ġrelies
ĠPlan
Ġrem
Back
ĠFULL
conscious
Ġsap
Work
Ġbargain
inances
ĠPlain
bound
spe
Ġdiameter
Ġgy
ittens
Ġinspire
Ġweary
Ġconspir
eness
Ġpreserve
nery
Ġsoftly
Ġfrust
anny
Ġlaunch
Ġa
Ġfares
Ġbig
Y
Ġability
ĠYe
ĠPsych
ĠFre
Ġurgent
Ġhung
Ġbathroom
prising
Ġobnoxious
Ġdecomp
Ġpie
aps
pants
Ġcas
ĠCare
algia
Ġdesign
Hello
Ġarrival
Ġdomestic
Ġcrime
Ġsimplicity
ĠIMP
atre
Ġallergic
Ġspecimens
Ġmagician
Ġembarrass
Ġmade
Ġartwork
Ġstars
Ġmisplaced
Ġassembled
ppel
ĠSummer
RO
enders
LE
ĠWest
Golden
alking
ĠWAY
forts
fore
Ġjars
ĠRumble
Ġdesirable
Ġpostponed
odynamic
progress
Ġtraining
Ġgoof
las
ĠName
chie
Ġobjections
ap
inated
Ġpanel
ĠHang
Ġoriented
Ġcommonly
Ġthank
Ġadvice
ĠEducation
Ġunlocking
move
Ġsque
Ġstandpoint
fu
ĠUSA
Ġrecently
Ġtwins
Ġsoften
ĠOUR
ĠObs
ĠIncluding
Ġtalking
Ġgrateful
Ġhurt
Ġmicrobes
Ġaccurate
Ġsons
Ġcorner
ĠChallenges
ĠAccess
Ġkittens
ĠAnt
Ġprecious
Ġexact
Ġvibe
Ġunravel
ĠDoing
Ġbonding
Ġparted
ĠPiet
ĠFestival
Ġwhose
foot
Ġcrop
Ġfuss
Ġtruths
through
Ġexceeding
Ġwhilst
Ġtrans
Ġnightmares
Ġprem
Ġenvironments
ĠME
Ġambiguous
Ġrocked
ĠFR
Ġpresentation
inals
ĠJer
ĠWhere
erc
bub
look
ĠPrivate
Ġmummy
oop
ĠFishing
Ġlash
ĠFight
Ġdeprived
rier
Ġassessed
ometime
Ġbuildup
App
ĠAnyone
Ġarts
core
Ġawareness
Ġsubmitted
ĠCall
Ġleaves
Ġpowd
're
aring
Ġexception
Ġbelt
Ġlowered
Ġrecommendations
Ġhairy
Ġ30
ipping
Ġtires
ct
Ġrest
Ġrepl
Ġac
Ġrec
rought
ĠIcon
ĠMc
ĠPose
ĠVIP
ouse
ĠProperty
Ġcob
Ġpointers
iously
Ġmember
iling
Ġfootprints
pac
Ġanniversary
Ġrhythm
Ġdelay
After
ĠCOMPLE
Ġfaith
ĠFever
ĠTurtle
Ġfamilies
Ġsuggest
Ġloot
Ġabs
iff
Ġbott
3
Ġcomfort
Ġpowdered
ĠTouch
Ġetiquette
Ġskilled
Ġfascinating
ĠSometimes
Ġlawn
x
Ġshiny
unct
Friends
ĠY
ĠSales
Ġfold
arch
Ġwore
so
Ġsolve
Ġpractices
ĠFO
Ġglared
Ġranks
Ġindoors
Ġsolar
Ġsupport
Ġstir
Ġencountered
Ġsymptoms
gged
Ġmayoral
Ġincreasing
osc
Ġter
Ġblew
Ġfinds
Ġrelocated
ĠExplorer
Ġboil
ĠMix
endum
Ġtotally
egg
Ġgoat
ĠYa
Ġtowns
Ġpulling
Ġbuff
Ġdepicting
Ġlearn
Ġonly
Ġuns
occupied
estone
Ġskins
ĠPOP
Ġmainland
Ġactors
think
im
Ġbloom
Ġprove
erson
ĠROCK
ressive
Ġrequests
ĠLat
iction
ĠProvided
ĠSeen
iy
Also
Ġidols
Ġhappiness
ling
giving
iaries
Ġni
Ġcalam
Ġgreatest
Ġgrazing
Ġecstatic
Ġgearing
Ġresulting
Ġsal
Ġenhance
Ġdues
ĠStun
Ġthick
licks
Ġdeduction
ĠAtt
ĠEnd
ĠImpro
Ġquick
Ġmixer
average
ras
Ġfrench
Ġeyes
Ġclandestine
Ġhes
ĠLastly
Ġlacks
Ġapplicable
Ġrelaxing
Ġdepth
ĠHELP
Ġprud
Ġlas
ĠMostly
ĠDonation
ĠSim
Ġpreparation
ĠRaw
Ġchicks
Ġimm
Ġcodes
Ġcruiser
Ġcliff
Ġjugg
bur
Ġlabeled
Ġheartfelt
Ġchemistry
value
Ġretain
Ġshadow
Ġstroke
pack
Ġbins
Ġsung
Ġattention
Ġjournal
Ġimpressive
Ġ72
Ġthoughts
Ġstatues
Ġam
Ġraising
Ġtrader
Fine
Ġnavigate
Ġassess
Ġqueries
aith
Ġwalks
self
ĠFull
Ġnotice
Ġscar
Ġmagnificent
sharp
ĠShow
Ġumb
Ġacquiring
Tell
Ġdigest
Ġbitterly
Ġelevated
ĠLess
LL
Ġve
ĠVol
later
Ġdistress
Ġmeasurements
Con
Ġslipped
Ġdirector
Summer
far
Ġeager
pe
Ġgentlemen
Ġchilled
ORGE
Ġbarred
Ġsmart
ĠYar
best
ĠQueen
ĠKnown
nered
Ġbattles
ĠRich
peror
Ġkicking
Ġbrav
Ġraw
ALLY
ĠStandard
this
ĠDeal
Ġneedles
Ġma
abi
Ġempowering
Ġtill
Ġsouls
Ġconsideration
hap
Ġwarmer
Ġber
Ġtasks
ĠThou
OOOO
Ġfinale
Ġoutlandish
ĠEternal
Ġcreate
r
Ġremoving
Ġrefer
ashed
Ġwinning
timer
Ġexhausted
Ġweeping
abilia
ĠHIM
Ġdescription
Ġlonely
night
ulate
Ġbats
Ġeveryone
Ġ360
ĠSTE
Ġtrance
Ġsupp
um
dd
Ġtheoretically
Ġvicious
prov
Ġoak
Ġbased
Ġstandard
Ġachievement
Ġsmoked
Ġminions
Ġnumbers
Ġlosing
Ġvarious
Ġsquid
Ġperched
Ġherbs
ĠMedals
Ġalarm
Ġgrid
Ġupt
Ġoccur
ĠArmed
ĠOil
ĠANG
Ġ300
arding
Ġcha
itated
Ġchopping
Ġhorror
Ġsnowball
ĠNy
Ġapology
ĠReprodu
's
Ġolive
Ġdebate
Ġruins
Ġadventurous
Ġhump
Ġironically
ubs
Ġdevelop
ARD
Ġstring
Ġpages
Ġonce
Ġunable
Ġavoiding
ot
Ġwrestlers
Ġinspecting
Ġrequested
ĠOf
Ġcostumes
arin
Ġunfamiliar
Ġhome
Ġsarc
Ġpalace
ortun
raw
ory
St
Ġoccasional
Ġheld
Ġdarkness
Ġdevoted
Ġnutshell
ĠRes
Ġtrusting
Ġmunicipal
Ġbiggest
WE
Ġlooking
Ġwhispering
Ġfor
Ġstopped
ĠLate
ĠFriends
emies
Ġcomposed
Ġminimalist
Ġicy
Ġjar
ĠSoup
ĠAlas
Ġdiet
ĠWhite
Ġappeared
Ġexh
Ġpine
Ġwhenever
Ġrumors
Ġinn
Ġregards
Wonder
Ġthreads
Ġeerie
entry
Ġsch
Ġghost
Ġyard
Ġfirefighter
Ġtalk
Ġcame
acement
Ġutilizing
Pink
Ġsubscriptions
Ġburial
ĠBest
Ġappeal
Ġhandling
Ġoily
ĠSAN
ĠJe
ĠWinner
Ġcollectors
ĠReason
Ġorganizing
Ġholds
Ġworst
Ġeight
Ġinconvenient
Ġsou
ground
ĠLoud
Ġsharks
Ġsharing
Ġsugars
Ġfolks
ued
Ġexpanding
Ġperiod
Ġattendant
Ġrid
friendly
Ġhint
Ġencounter
Ġleather
Ġspare
ances
ĠZeus
Ġexhibition
Ġfi
Ġwipes
Ġsixth
Ġoverd
Ġshockingly
ĠProblem
Ġpuppy
Ġpiled
Ġsupposedly
ousing
ĠHim
ĠPaper
erb
Ġhurled
ĠAll
oos
Ġprevent
Ġsandy
Ġcurly
ĠThank
ĠWORLD
livion
ĠFer
ĠMichel
Ġsonic
na
Ġtops
Ġcaptured
ume
Ġbowl
Ġme
Ġdress
Ġeyebrows
Ġcheese
l
ĠNothing
Ġneutral
Ġhamm
Ġstickers
ĠQuite
ĠPurple
atter
Ġeventually
Ġwondered
Ġoneself
ĠTruly
Ġdesired
iers
Ġanchored
Ġcompletely
Ġrelying
Ġfailed
Ġjammed
ĠHot
Ġcarbon
Ġchocolate
Ġspoon
One
Ġpanc
Ġassociates
Ġdevices
Ġslew
way
Ġpants
ensing
PLIC
hing
Ġneighbors
Ġblanket
Ġbrewed
op
Ġtournament
Ġdefensive
Ġbrowsing
cro
ATED
Ġsteps
cold
Ġinsect
ĠNeeds
Ġboredom
ĠAllow
throw
GA
Ġenthusiastic
Ġflips
ada
Ab
ĠExp
Ġable
Ġgam
Ġga
IES
Ġbottled
Ġcorrect
Ġoverflow
enter
Ġdistance
Ġvariants
Ġtranslucent
Ġstomp
At
ĠBeen
Ġhollow
atory
Ġtossing
ĠDrag
Ġsaddle
Ġstrang
Ġcostly
iel
Ġomn
Ġbath
Ġblankets
Ġguarantee
Ġdistur
ĠCoins
Ġdiscouraged
ĠKnowing
ĠPositive
Dragon
Ġdreamed
Ġpeacefully
ĠVis
Ġindividuals
ĠFare
Ġtreats
Ġtemptation
inding
ĠYour
ĠAur
Should
First
Ġpaws
Ġsymptom
Ġevery
Ġtrees
Ġgaining
ĠMode
Ġkisses
Ġblur
ner
Ġticking
Ġscientifically
Ġthings
Ġrevenge
Ġmultiple
Ġace
breaking
illy
ĠStatic
Ġstep
igr
Ġhandshake
Ġspeedy
ĠLive
Ġeducate
ĠRedd
Ġur
Ġcenter
pelled
mph
star
war
ĠConsider
Ġcurrently
iya
Big
forward
Ġtrain
uts
Ġcaul
Where
ĠExpl
sch
Ġwrites
Ġenergies
Ġentrance
Ġfixture
Ġelected
ĠFind
ism
Ġrestaurants
ĠRet
charg
Ġtherefore
Ġrecall
Ġchairman
Ġmaple
Ġflex
Ġassumed
Ġdangerous
iest
oust
ĠCoffee
Ġaccidentally
Ġ500
ĠCu
Ġbask
TI
Ġexclusively
Ġswung
Ġunsettling
Ġcommence
Ġstones
Ġrecycle
ĠUnfortunately
high
Ġbiased
Ġundercover
Ġdresses
Ġ24
ammy
Ġinv
ama
VI
Ġguessed
Ġunfolds
Ġpracticing
ĠThinking
ĠEnvironmental
Ġvertically
pper
Ġswelling
outh
Pear
ĠPlanet
Ġmeg
Ġcaught
Ġcommunity
aging
ley
Ġpark
handed
Ġskeletons
reg
Ġjob
Ġmeaningless
Ġreveals
Ġmobility
Ġdefeat
Min
Ġparanoid
Ġdumped
Gu
Ġprisoner
Ġquiet
Ġlair
rams
Ġmigrating
Ġcow
ĠNumbers
Ġarranged
Ġpart
Ġvaluable
ĠKEY
Ġdarker
ĠUnless
draw
Ġhuh
ĠPat
Ġmoth
pathy
ĠWander
Ġdiff
Ġcommerce
ked
loving
Ġways
Ġdom
eeds
Ġnominate
Ġglobal
ĠComment
Ġtiny
Ġta
Ġlimb
Ġcues
Ġmandatory
Ġrescue
Ġargued
Ġgather
Ġinterest
ĠFRI
Ġuneven
Ġpostings
comes
Ġassume
Ġapproved
Ġlenses
Ġbaker
Ġnecklace
Ġowners
ery
ĠBelgian
ĠID
ĠThan
Ġcollected
olk
ĠNose
Ġadopt
Ġdisturbing
Ġcapt
Ġsideways
AR
Ġsincere
Ġabove
Ġmixture
Ġtower
Ġvisibility
Ġpounding
otally
Ġburying
Ġlaugh
AC
Ġequ
Ġhottest
Ġrelentless
angular
ĠJohannes
Ġbutton
Ġbegin
pour
Ġengage
ale
Ġentered
Ġresearch
Ġing
print
Ġcollar
ono
ooter
Ġwoman
ĠUltra
Ġorder
Ġcrises
asser
S
ees
Ġthroat
Ġhairs
yll
estead
Ġadept
ĠBeet
Ġpresent
ĠScreen
Ġlaws
tom
changing
Ġtoo
Ġgive
Ġflames
Ġphantom
Ġgard
ĠBUT
ĠStay
ĠDrop
Ġsubmit
Ġinc
ani
16
RET
Ġvain
ĠSort
ĠUFO
icas
Ġce
Ġindist
Ġbabies
Ġawe
Ġcountless
ĠInc
ĠGreek
Ġpop
io
Ġproductive
Ġupdated
Ġmight
Ġperiods
Ġlines
ION
Ġthemed
Ġbum
Ġbranded
Ġour
Ġcandle
ĠBattles
Ġvivid
Ġmed
ĠUse
awaited
Ġpo
Ġne
Ġbuggy
Ġunderside
Ġsisters
Ġthrob
Ġfund
Ġaction
Ġemotion
ourmet
Ġinsulted
Ġshine
ĠTown
anky
Ġorigins
Ġmarked
ĠGiving
Ġreporting
thro
Ġactivate
Ġdifficult
league
ĠTag
Ġfundamentals
Ġanch
ĠStraight
age
So
eways
Ġnearing
ĠCrazy
Ġignore
Ġto
ĠDefinitely
ĠTir
Ġclaw
Ġsche
Ġstockpile
Ġboiling
Ġrepresentative
Ġdressing
Ġarguing
Boy
ou
ain
Ġheals
Ġtragedy
Ġlik
Ġlistens
itable
Ġcrazy
Ġcompetitive
Ġacceptable
ĠClassics
iddle
Ġattachments
Ġidentified
ĠXie
Ġprogrammer
Ġdownload
Ġeverlasting
/
Ġdrawn
Ġstems
Ġfisher
eding
Ġcap
Ġbreaks
butt
Ġwillingness
Ġbeat
Ġspending
Ġharvested
Ġaw
Ġshark
Ġnovels
NING
ĠOriginally
ĠWond
Ġfrowned
Ġgrandmother
Ġranges
Ġoverwhelm
ĠHol
Ġexpenses
Ġstellar
di
ĠQuit
Tal
Ġperspective
Ġexpert
icky
Sample
iculture
Some
Ġcoming
Getting
Ġsmiling
Ġpopularity
Ġcontaining
col
Ġattitude
Ġarcade
Ġmm
Ġpeac
Ġcosmic
Ġanother
ruit
BS
Ġcandidate
ĠGorge
UNCH
Ġagreeable
Ġreactions
Ear
Ġmindful
ĠHail
Ġforgiven
led
Ġfirefighters
Playing
Ġborrowing
care
ĠStores
aj
LO
ĠLong
antle
ĠWor
Ġforward
Ġhelper
ĠMaker
Ġdrains
ĠKiss
Ġintroduced
Ġaccomplish
irt
Ġpainted
Ġpat
Ġsuperb
Ġjack
wait
Ġsuppress
Ġdarn
Ġcontents
ĠOrd
iveness
note
Ġroutine
Ġposing
'd
Ġaccessories
Ġsold
Ġsoph
Ġlives
Ġsalon
Ġfeatures
Ġlot
Ġmicro
Ġsmoothly
Ġconfused
Ġreturning
asy
Ġmin
ĠHistory
ĠProof
Ġthumbs
Ġherbal
ĠFest
Ġflipped
ĠLions
ĠInterestingly
ĠBody
Ġchaos
Ġraid
zza
ĠAnger
Ġmidday
ĠBing
Ġstacked
model
Ġsyll
Wh
Ġweakened
Ġallergy
Ġshock
DE
sur
ĠYosh
uana
Ġconsume
Ġpr
ĠOPEN
ĠFruit
ounce
Ġbeats
ls
cost
Ġshrew
Ġfinance
Scar
Ġcanvas
ĠSPL
Ġalive
Ġchallenged
Ġgigantic
Ġantenna
ales
ĠWinter
Ġcrossed
ĠVikings
Ġadvertising
Ġresc
ĠToday
Ġray
Ġpainfully
Ġlongest
Ġpolitely
Ġ26
Ġretro
ops
Ġunbearable
Ġhive
Ġbald
Ġtennis
Ġfastest
fresh
Ġapplies
END
ĠStudy
Ġthrottle
Ġarrive
mill
Ġlarge
Ġlearning
ĠTables
Ġsnapping
Ġ70
Ġyour
Ġabundant
Ġfaces
Ġentirely
eval
Ġmodest
ĠGuidelines
she
uffed
Ġsunglasses
Ġpopular
place
ase
Ġpreferences
ĠEdition
Slow
arf
ries
ĠLos
Ġerg
Ġzoo
Ġpositively
Ġplunge
Ġdangling
Ġromantic
Ġforest
ĠFather
ĠOo
Ġcomple
Ġusers
Ġdiner
Ġyoungsters
Ġord
bel
Ġmaker
Char
eful
ĠSa
Ġoats
Ġmel
Ġgrace
Ġsophistication
ne
Ġliteral
olic
another
Ġpools
Ġgrit
Ġslowing
ĠMet
Ġhum
According
Ġdelivered
Ġacoustic
Ġnamesake
ty
Ġtart
Ġdumps
Ġidentifying
Ġmar
Ġmailed
ĠMah
ĠDuring
ĠExc
race
ĠShort
ĠEl
OO
Ġflower
Ġye
Ġparts
Ġwage
Ġmaking
ĠWere
Ġprim
Ġlazy
Ġrefinement
Ġembarrassing
Ġextraordinarily
Ġgent
ĠGot
CHA
Ġmates
ĠHuh
Ġkids
Ġstruggles
Ġinstalling
Ġindifferent
Ġsticking
Ġguaranteed
Ġradi
Ġshirts
acer
Ġmissed
Ġspread
Ġhunts
ĠLearn
Ġadvances
Ġwake
lying
Ġstock
Ġfantastic
Ġgotten
ners
ues
ĠVideo
load
cross
Ġimmediate
Ġcyclist
Ġmotiv
Ġvision
Ġunderstands
Ġbes
Similar
Ġevent
Ġcartoon
Ġaltitude
Ġstylish
Ġintellectual
Ġre
Ġpotentially
gard
Ġsomet
Ġreminded
ĠHair
ĠIdentity
ire
lers
Ġinterfere
Ġsin
Ġapplause
ĠLuck
APP
ĠRecords
Ġtraction
Ġtip
Ġfrustration
Ġfleeting
usting
Ġclaims
ĠSn
els
Ġfairy
Ġrespects
udd
Ġtilt
Ġannoy
ĠDutch
ASE
Ġlets
Ġfarther
Ġimprove
ulk
Ġwhit
ĠTHREE
ĠGOT
Ġseals
ola
Ġvintage
oy
Ġdebacle
Chance
ĠJudging
inder
Ġtongues
ini
Ġknives
ous
ears
hhh
Ġupside
Ġwra
Ġtries
Ġdelete
Ġlaying
agg
ĠTak
Ġhardened
Ġreplen
Ġpatrolling
Ġunbeat
ĠOU
selling
ope
Ġdread
ĠSolution
Ġintel
Ġmatching
Ġpercent
Ġsupports
Ġhype
Ġtrooper
wings
Ġfraction
Ġcollects
Ġcured
Ġyeah
ĠMe
Ġsleepy
ĠTraining
ĠHonor
Ġpresident
CL
Ġboundaries
great
Ġchampionship
Ġlineup
ĠHik
ĠHomes
Ġmysteriously
Ġmotivation
ĠMil
ider
Ad
Ġsincerity
Ġwhine
Ġcrafts
Ġherald
Ġtying
Lo
Ġvoices
Ġrematch
Ġtune
calling
Ġfoot
Ġshe
Ġago
Ġculprit
Ġ99
ĠAfrica
around
Ġdried
Ġbase
WHERE
ĠTIM
ip
Ġdisco
ades
ish
Ġfarewell
ĠUpon
bs
Ġaver
odon
Ġgraz
ame
Ġsoup
ately
ces
Ġroute
Ġdocumentary
Ġrefriger
ĠDecember
ptions
Ġif
Ġobviously
fire
joy
ĠMILL
irs
Ġhappened
Ġsequel
ange
Ġfashion
ogie
Ġmyst
ĠStore
Ġflashes
ĠAverage
ĠLove
ney
ĠSpace
ĠGross
Ġdoubles
Ġconsequences
Ġnervous
ĠImpossible
ĠEP
ĠLa
Ġdiscounted
Ġvanilla
Ġpan
Ġcopying
Ġignored
ered
ĠDis
Ġhighlights
Ġ67
Ġdisrupt
ahead
Ġsmells
Ġpractically
ition
Ġhonoring
Ġamount
Ġsad
Ġsouth
Ġtaps
ĠReverse
Ġ10
Ġreads
\
dash
Ġcontent
Ġovert
Ġtable
Ġdiscount
Ġconversations
[
Ġsuffice
Ġtiger
ĠSprint
ch
NG
ĠGym
45
Ġequals
ĠSporting
Ġmail
Ġdiscussing
leased
Ġthicker
Ġbetting
Ġhanding
Ġadvantages
Ġdated
ĠPe
OUN
ault
Ġmigr
Ġlect
Ġconsumed
ĠKil
amped
ĠVERY
Ġ37
Ġcrew
Ġtrust
Ġconference
Ġunnoticed
Ġrecruited
Ġstuffing
alled
Ġblade
Ġblack
Ġouts
Best
Ġformidable
your
ĠAdult
Ġdwarf
Ġcomfortably
edes
Man
Ġactivity
Ġmood
ash
Ġbounty
Ġris
Ġecosystems
ĠTheir
Ġ/
Ġprior
ĠEngland
ĠNE
Ġdebris
Ġexcavation
ĠSpecial
Ġdisplay
Ġmah
Kay
Ġetc
Ġflavors
tailed
ITED
af
Ġpublic
ivery
Ġbets
Ġhear
ott
oot
Ġopener
Ġbark
Ġoutnumbered
aver
Ġpowder
ĠLife
Ġlips
Ġproceed
Ġdragons
tains
Ġder
Ġfines
Ġsy
OP
Ġpracticed
Ġstain
zzy
Ġreminders
Ġlipstick
Ġrum
Ġtoken
ĠDupl
Ġconsiders
Ġfloating
at
Ġstreets
Ġnodding
Ġsample
Ġroar
Ġoccurs
ĠPaint
Ġwinners
Ġrobots
Ġbank
ĠWant
Ġhelpful
Ġburned
Ġemergency
Ġindirect
ĠCookie
blow
My
ĠAch
mm
imming
Ġlake
ĠRegardless
Ġbrittle
YA
you
Ġsentence
Ġdisposal
collection
Ġdesigner
Ġbelieved
Ġnice
Ġpockets
Ġswollen
ature
Ġpreference
Ġcomm
Ġcla
erved
ĠMind
odiac
Ġevolved
arre
Ġreserve
Ġweights
They
ggies
ALL
Ġmoist
zone
trust
gun
ĠMan
Ġmisses
Ġballs
uting
Ġweeds
Ġstorage
inkle
Hopefully
Ġperm
Ġsand
wear
Ġupper
But
Ġiron
Ġglamorous
Ġseems
Ġeats
Ġadulthood
pill
rod
Name
Ġathlete
Ġnow
Ġburied
Bee
AN
Ġceiling
Ġpageant
Ġassignment
Ġrecords
Ġfunctions
ĠTea
ĠRun
ĠSong
Ġkidding
4
ĠShop
ito
Ġhacker
Ġfrozen
Ġelbows
thank
ĠHor
Ġsignificantly
Ġworlds
ĠLondon
asted
ometown
Ġwaist
Ġclosure
Ġtypical
Ġwe
Ġseminar
Ġjun
acle
ĠSitting
ĠClothing
2
Ġshallow
Ġgolf
Ġworkforce
Ġaud
Ġirrational
wa
aaa
Ġweek
Ġwizard
ez
Ġcycle
Ġbarbecue
Ġoverflowing
frog
charge
Ġbrewer
Ġdip
Ġ2002
Ġfighters
Ġveteran
Ġscoop
moon
ĠIncreased
stop
hammer
Ġdared
ĠArea
ĠSharing
Ġmonthly
ashes
ĠSpend
Ġcountdown
ly
ĠAgg
gie
ggy
Ġappreci
96
Ġque
just
pping
Ġarchae
oons
dy
Ġmilestone
Ġcustomization
elf
Ġniece
ĠClown
Ġlectures
a
ĠSouth
igo
NN
raising
Ġfloors
Ġgenerating
Ġmelting
ĠChanged
mal
arrass
Ġsteak
jar
sh
ĠLamp
Ġschedule
Ġdonors
Ġpresents
Ġpup
SM
Ġcans
Ġamber
Ġroaring
Ġwast
icle
Ġprints
ĠYOUR
Ġwhichever
oon
Ġle
Ġbeloved
Ġadded
ĠDI
Fle
ĠSpe
ially
Ġyourself
Ġrelationships
Ġannoyed
Ġbulldo
Ġstrike
Ġjeopardy
ipples
Ġreceive
roach
ickle
stice
written
balanced
umm
ĠFund
Ġmajestic
arr
Ġaccident
le
Ġpedd
ĠLeaf
ĠItaly
ĠBritish
ĠCompl
live
Ġnails
Ġcrib
ext
Ġfaulty
Ġtrophies
Ġconfession
ĠPour
pool
ĠCrow
Ġice
ĠHapp
backs
ĠGarn
Ġblindness
Ġpolicy
Kill
Ġyes
Ġrag
bet
ĠE
iary
Ġsummoned
Ġtumble
AM
gr
ĠSeems
Ġlevels
Ġvoid
Ġintrigue
Ġvegetarian
Ġhappy
Ġmust
joice
ĠAl
ĠUpdated
Ġhighlighted
ĠHuff
g
Ġhedge
Ġregrets
Ġbasket
Ġankle
Ġlistener
his
ĠHear
Ġsuccessfully
Ġknocked
Ġjersey
ief
Ġdonating
Ġpeanut
ĠSky
Ġsem
Alright
ĠMAKE
Ġinexplicable
Ġapologies
Ġhol
Ġwrap
Ġglimps
Ġregarding
Ġcleaned
Ġunfold
Ġtouching
out
ĠMushroom
AP
Ġmagically
Ġhurried
IVER
Ġrefrain
Ġjumping
Ġoranges
ĠSigned
Ġunite
Ġlasted
Ġpossible
Ġsea
Ġ+
ĠFem
UR
spir
ita
Ġwarrior
ĠNone
Ġcustomized
Walker
Ġtum
ĠSearch
ĠHAS
amental
ushi
Ġcourtesy
Ġe
ĠExamples
Ġsatisfying
Ġblah
igible
Ġrash
Ġshowed
Ġtakeaway
Ġban
(
ĠTer
Ġplant
ĠEL
mark
ton
Ġ1800
evil
Ġeyed
Ġinsufficient
ĠHits
Ġdaytime
Ġproudly
Ġpolish
Ġboat
mented
Ġinstead
Ġcelebrities
Ġbooked
ol
Ġfights
Ġyell
Ġangels
OUGH
Ġmenus
Ġcaused
wra
ĠInfinity
Ġdecorated
ĠPop
Ġfuturistic
Ġmystical
ĠNow
ĠSlide
Ġcollaboration
Ġsilly
Ġadvised
words
old
Ġexistence
Ġoriginally
Ġresist
arily
Ġinitiative
rates
Ġfierce
ion
Ġrad
ĠZ
Ġintense
Ġsnippet
Ġdisappointment
Ġrivalry
Ġparticular
month
sk
ĠThomas
oodle
Ġapproval
Ġswell
atus
amer
Ġhopes
Ġsame
ĠLike
Ġexpresses
Ġunic
Unfortunately
FER
Ġbegun
Ġincredibly
ĠThailand
Ġscales
Ġdignity
igg
Ġhandsome
Ġappear
pen
Ġshowcases
ĠSadly
Ġsymbol
Ġexterior
Ġpigs
ĠAdvent
Holy
Ġanticipating
Ġgrabs
Ġsucceeded
ĠThread
Ġcure
ĠInside
eway
Ġheat
Ġhook
Ġcoward
ent
Ġstoked
ĠEat
oking
utive
Ġtelev
ĠSmart
ĠFranklin
Ġupdate
Ġdan
Ġafraid
wh
ĠHuge
Ġtrials
Ġvideo
effect
ĠZero
reement
Ġutilize
akers
Ġobservations
56
Ġpossibility
orange
Ġcommunications
orned
Ġreps
Ġthinks
Ġcelestial
Ġconnections
Ġmoving
urch
Ġshoes
ĠTemper
Ġperpet
gets
PP
ammed
Ġspeculate
Ġlodge
Excellent
sky
Ġsorry
Ġvent
ĠShared
Ġmean
Ġrain
ĠPOW
Ġunstoppable
Ġseparately
Cru
Ġskills
box
Ġcontinues
Ġclearance
ys
earned
AD
ect
Ġartificial
Ġtorped
picked
ĠRAW
ĠBasically
lish
Exc
La
mi
Ġstanding
izers
Ġwrapper
Ġworkers
Ġshows
CE
Ġintelligent
ĠKong
orm
ĠJ
Ġsaint
agger
Ġcultivated
Ġallow
aut
Ġparade
ADS
Ġlatest
Ġions
Ġsmoot
Ġopponents
Ġwom
Ġgraduating
Ġunheard
ppy
Ġautobiography
Ġabandon
ĠHom
Ġfol
Se
Ġ54
ĠRA
Ġparchment
Ġuh
ers
Ġpriority
Ġpest
Ġmanagement
Ġduplicate
arm
Ġhovering
ĠAmb
Ġax
venient
ĠCree
Ġfuture
Ġcountryside
Ġrefurb
bons
ierce
Ġshapes
azes
ila
Ġstarved
ĠLetters
Ġmagazines
ĠEarth
imen
ĠWould
Ġlimited
yellow
del
ĠDele
Ġfatty
Ġfinishing
ĠCher
Ġunfortunately
ledge
Ġsurfing
'm
Ġdeposits
Ġnature
Ġtrash
Ġproper
Ġheard
med
ĠDrink
ups
Ġpl
Ġwhile
Ġbags
asting
Ġentertainment
Ġearning
ĠEt
Ġpesky
ĠShell
ths
Ġsupreme
Ġexercising
ce
Ġphone
Ġspiders
ĠSafety
Ġwings
HAHA
Ġmysteries
Consider
Ġexam
Ġhorizon
Ġpairing
thinking
Ġhits
Ġconcent
obs
fa
ĠRuns
Ġmirrors
Ġcoat
Ġanybody
Ġhotels
Ġcust
Ġmatched
Ġdecipher
ĠTotally
Ġimagine
Ġpersonalities
Ġhon
Ġraging
Ġpaid
Ġwrite
Ġlonging
Ġupdates
Ġheav
Ġinvolving
INGS
yo
outing
Ġamaz
Ġbreakdown
Ġflashing
Ġembarrassment
ark
ĠSyndrome
udos
Ġcalming
Ġsilence
Ġspring
Ġintroduce
Ġabroad
odd
Ġrecord
Ġng
bye
eping
Ġwhatever
Ġbust
Ġagenda
Ġcalled
Ġforgive
How
Spider
lor
Ġgoing
Ġcares
ĠRules
Ġplaces
Ġrelaxation
Ġprivileged
Ġrenovation
ĠEmerald
Ġarmy
PIN
10
Ġtemperature
Ġanew
Ġprogress
Ġshooter
ĠH
Ġdecisions
reme
ĠAnonymous
Ġpowers
Ġintrigued
Ġemotional
rend
isc
essions
ically
Ġrestore
Kind
ĠMonsters
12
loo
ĠMark
Ġamnesty
ated
Ġtasty
Ġstraight
Ġluckily
People
still
Ġreluctance
Ġfinal
ĠSandy
Ġinvolved
Ġsecretly
Ġoldest
Ġaccomplished
on
Ġshenanigans
ĠOnline
Ġgolden
Ġredundant
ĠTime
Ġloves
Ġvampires
ĠMak
avers
Ġarom
arest
ĠTotal
avy
Ġfireworks
ĠWi
Ġwink
stud
ĠDesigns
aby
Ġcycl
ĠUntil
Ġprotecting
bre
ĠDawn
Ġcracks
Ġti
ĠColor
Ġcrocod
Ġvisits
Ġhoney
ĠKn
Ġsoaking
quire
`
Ġlov
Ġmoot
othe
Ġrenovations
Ġties
sn
Vis
tiny
ĠMy
ĠTony
oria
unt
Ġoffering
aky
Ġdesigned
ĠCamp
Ġt
ago
ĠAng
Ġ0000
Ġsituations
Ġsalsa
Hi
Ġstuff
ending
building
irling
Yo
my
Ġtempting
Ġorange
utton
gary
ulsive
inks
Ġversatile
ĠVine
se
Ġreborn
Ġfocusing
it
ĠEr
ĠBRE
ush
Ġbou
ĠChin
ĠLOT
Ġpaperwork
Ġunusual
ĠConcert
Ġdespite
Ġunusually
Ġpalate
yr
ĠElev
Ġdescribe
ĠSho
Ġdefining
Ġglimpse
Ġgrants
Ġpound
ias
watch
ĠAqua
vous
Ġoptimal
Ġcorresponding
Ġtie
ĠFear
Ġcompete
Ġpair
Ġcultured
Ġheaded
Ġbeetle
cor
Ġinnovation
Ġsurrounding
ener
Ġcrushing
Ġmort
Ġagain
ĠSpit
Ġhungry
Ġinstrument
plant
Ġchecked
Ġcaramel
Ġgrinning
Ġkil
Ġdefined
Ġgre
cluded
Friend
ĠSand
ick
ĠFab
Ġbone
Ġcharge
ĠScotland
ĠBox
Ġdaring
Ġwishes
Ġleth
Ġdign
Ġplugged
kind
Ġmotion
Ġcombos
Ġslight
ĠTexture
pired
Ġdiary
ĠMerry
37
Ġ49
or
Ġra
Ġfantasy
Ġvictorious
Ġglue
ĠHard
Ġpasses
Ġinflated
Ġdevelops
Ġauthor
ĠMoh
en
Ġfit
Ġdeadly
Ġunderdog
Ġforever
iscovery
Ġslots
ĠHull
ru
Ġaccomplishment
Ġrolls
ions
OCK
Ġrot
ĠTry
Ġrep
args
Ġtransformation
irst
ĠGoal
Ġelephants
ĠEx
Ġfunk
ĠSprings
adays
Living
Ġqualities
Ġsling
ĠInfinite
cot
Ġstarring
Ġuncle
Ġadversity
Ġerror
ĠProfessor
Ġspecimen
Ġblowing
Ġtied
Ġshells
OME
Ġcomparatively
Ġrelationship
cher
Ġoverall
Ġcancellation
Ġbitters
PS
ĠBuff
Ġfrost
Ġnasty
Ġclient
Ġthoroughly
Ġhands
Ġmim
neys
Ġironic
Dark
Ġeveryday
Ġattracts
Ġrealistic
Ġcameras
Ġforfeit
Ġswitch
ĠTeam
anut
Ġtales
Ġstole
Ġtalked
ĠMore
ĠService
ĠGolden
Ġrecommend
Ġsuperf
ĠFour
Ġunderwear
ĠPor
rict
chance
Ġeuph
Ġcol
Ġfreak
history
Ġmanual
Ġlousy
ĠMuch
ĠNay
Ġfanatic
th
Ġecology
Ġappointments
oth
Ġpunching
Ġlost
oga
rid
Ġtailor
ĠTECH
ĠOgre
artment
Ġshade
ĠCustom
Ġcolored
Ġhoped
ĠMate
Ġmild
ooky
Ġperfume
aughs
Ġmayors
Ġflavored
Looks
ayed
Ġcompatible
serv
ĠMiss
Ġexcav
Ġgrave
Ġcandidates
Ġbailed
Ġpreview
Ġcaffe
ester
opus
ĠShows
ĠChange
Ġregions
Ġhog
mer
Ġentertaining
Ġopened
Ġslip
Ġjungle
Ġhanded
ĠFree
Ġsnap
Ġdaily
acqu
Ġsleeve
Ġstepped
Ġmessing
Ġinterview
Ġatop
Ġrelease
Ġallergies
Ġbounds
Ġcampaign
ĠAn
nom
Ġunderestimated
Ġrecover
Ġslender
urry
Ġcontribute
Ġrestless
Nice
Ġelderly
sea
ĠCard
omon
Ġweep
Ġmuscular
gly
Ġfan
ĠClub
Ġunf
ĠPurch
Ġdisguise
ornings
Ġrodent
Ġrights
Ġfrustrated
ĠG
Ġlower
AX
Ġdegrees
Ġdumping
If
Ġtemporarily
ĠOcean
writers
ĠSays
ologue
ĠDou
Ġgrow
Ġstaring
arant
Ġactivated
IE
Ġsa
Ġdisturbances
ĠSystem
armed
ĠTeacher
ĠEpic
Ġareas
Disc
oscope
Ġbake
Ġbrightest
ĠExplain
Ġfib
ĠSharks
Ġcookie
esting
K
ENT
ĠOver
Ġearns
Ġattacked
ater
Ġgossip
Ġprime
Ġwagon
strip
Ġdat
Ġbatted
Ġkiss
Ġconf
ĠTrading
Nar
Ġrapidly
ĠPrices
Ġhaven
Ġcontradiction
Ġplaying
Ġanswers
ĠQu
Ġclueless
Ġscoring
Ġdil
Ġownership
Ġsaw
ools
Ġtornado
ato
Ġwhich
ĠIm
ĠPo
Ġcrunch
JA
Ġvoyage
Ġimproved
Ġstage
ĠEverybody
Ġunb
Ġmachinery
Ġpronoun
Ġagreement
Ġbuckets
Ġpops
IP
Ġarray
Ġdistribute
Ġservice
ĠVintage
Ġdiligent
HAHAHAHA
attering
Ġquickly
ĠKend
Off
Ġpresence
bank
Ġhere
Ġspaced
Ġplays
ĠAcc
Ġfirsthand
ura
Ġroll
USH
Ġclue
Ġtougher
Ġfootball
ĠRound
Ġpeople
ights
Ġshoulder
Ġreceiving
Ġmarine
Ġdevastating
Ġsculpt
ĠCarn
ĠRO
Ġmaniac
Ġlocation
Ġdesert
ĠExtreme
ĠDear
inate
ets
ĠItem
doctor
Ch
Ġruin
Ġterritories
ĠREL
headed
iscovered
;
Ġdistinction
ub
Ġbackground
Ġfixed
D
lette
ĠGET
Ġadore
ĠDare
Ġcommunication
Ġconsult
ĠOnly
Ġsublime
Ġbil
TE
Ġerr
ĠNotice
Ġinteresting
Ġwinner
Ġobliter
Ġworries
nuts
ĠHistorical
ULT
Ġmajesty
Ġgetting
Ġinsisted
dr
Ġpear
arted
lar
Ġsnake
Ġalmost
Ġknee
be
strong
Ġmute
Ġtreat
UFF
ais
ts
Ġlogs
cast
Ġeven
Ġproject
ĠTHERE
Ġkindness
Aw
ĠMajesty
Ġspun
Ġnonviolent
ĠHours
Ġ_
TA
Ġloved
Ġimbalance
Ġwoo
Ġdeny
paying
Ġpacks
dar
term
ĠOVER
ks
Ġthrill
Ġcaptive
developed
Ġcombinations
Ġholding
Ġwilderness
Ġpretended
Ġtowel
ocking
osing
papers
Ġref
Ġresentment
Ġmigrated
Ġfloods
ĠNon
H
Ġteam
ateful
Ġconven
peace
Ġsewing
Ġdetailed
inct
Ġrainy
ĠDancing
ĠFair
Ġfresh
Ġ29
ĠOl
ĠDown
ĠWalking
Ġbigger
Ġbow
Ġflatt
ghai
ĠBob
Ġmanuals
Ġdiscussed
amas
Ġhonestly
bu
Ġtricks
